unsigned char out_pb_tflite[] = {
  0x1c, 0x00, 0x00, 0x00, 0x54, 0x46, 0x4c, 0x33, 0x00, 0x00, 0x12, 0x00,
  0x1c, 0x00, 0x04, 0x00, 0x08, 0x00, 0x0c, 0x00, 0x10, 0x00, 0x14, 0x00,
  0x00, 0x00, 0x18, 0x00, 0x12, 0x00, 0x00, 0x00, 0x03, 0x00, 0x00, 0x00,
  0xa0, 0xab, 0x02, 0x00, 0x10, 0x00, 0x00, 0x00, 0x1c, 0x00, 0x00, 0x00,
  0x2c, 0x00, 0x00, 0x00, 0x0c, 0x00, 0x00, 0x00, 0x01, 0x00, 0x00, 0x00,
  0x84, 0x01, 0x00, 0x00, 0x01, 0x00, 0x00, 0x00, 0x4c, 0x01, 0x00, 0x00,
  0x0f, 0x00, 0x00, 0x00, 0x54, 0x4f, 0x43, 0x4f, 0x20, 0x43, 0x6f, 0x6e,
  0x76, 0x65, 0x72, 0x74, 0x65, 0x64, 0x2e, 0x00, 0x1e, 0x00, 0x00, 0x00,
  0x20, 0x01, 0x00, 0x00, 0x18, 0x01, 0x00, 0x00, 0x10, 0x01, 0x00, 0x00,
  0x08, 0x01, 0x00, 0x00, 0x00, 0x01, 0x00, 0x00, 0xf8, 0x00, 0x00, 0x00,
  0xf0, 0x00, 0x00, 0x00, 0xe8, 0x00, 0x00, 0x00, 0xdc, 0x00, 0x00, 0x00,
  0xd4, 0x00, 0x00, 0x00, 0xcc, 0x00, 0x00, 0x00, 0xc4, 0x00, 0x00, 0x00,
  0xbc, 0x00, 0x00, 0x00, 0xb4, 0x00, 0x00, 0x00, 0xac, 0x00, 0x00, 0x00,
  0xa4, 0x00, 0x00, 0x00, 0x9c, 0x00, 0x00, 0x00, 0x94, 0x00, 0x00, 0x00,
  0x88, 0x00, 0x00, 0x00, 0x7c, 0x00, 0x00, 0x00, 0x70, 0x00, 0x00, 0x00,
  0x64, 0x00, 0x00, 0x00, 0x58, 0x00, 0x00, 0x00, 0x4c, 0x00, 0x00, 0x00,
  0x40, 0x00, 0x00, 0x00, 0x34, 0x00, 0x00, 0x00, 0x28, 0x00, 0x00, 0x00,
  0x1c, 0x00, 0x00, 0x00, 0x10, 0x00, 0x00, 0x00, 0x04, 0x00, 0x00, 0x00,
  0xf6, 0x57, 0xfd, 0xff, 0xa8, 0x00, 0x00, 0x00, 0xfe, 0x57, 0xfd, 0xff,
  0xac, 0x01, 0x00, 0x00, 0x06, 0x58, 0xfd, 0xff, 0x60, 0x02, 0x00, 0x00,
  0x0e, 0x58, 0xfd, 0xff, 0x98, 0x92, 0x00, 0x00, 0x16, 0x58, 0xfd, 0xff,
  0x8c, 0x93, 0x00, 0x00, 0x1e, 0x58, 0xfd, 0xff, 0xc0, 0x5b, 0x01, 0x00,
  0x26, 0x58, 0xfd, 0xff, 0x74, 0x5c, 0x01, 0x00, 0x2e, 0x58, 0xfd, 0xff,
  0xa8, 0xc0, 0x01, 0x00, 0x36, 0x58, 0xfd, 0xff, 0x1c, 0xc1, 0x01, 0x00,
  0x3e, 0x58, 0xfd, 0xff, 0x10, 0xc2, 0x01, 0x00, 0x46, 0x58, 0xfd, 0xff,
  0x44, 0x52, 0x02, 0x00, 0x4e, 0x58, 0xfd, 0xff, 0x34, 0x53, 0x02, 0x00,
  0xfc, 0xa6, 0xfd, 0xff, 0x00, 0xa7, 0xfd, 0xff, 0x04, 0xa7, 0xfd, 0xff,
  0x08, 0xa7, 0xfd, 0xff, 0x0c, 0xa7, 0xfd, 0xff, 0x10, 0xa7, 0xfd, 0xff,
  0x14, 0xa7, 0xfd, 0xff, 0x18, 0xa7, 0xfd, 0xff, 0x1c, 0xa7, 0xfd, 0xff,
  0x7a, 0x58, 0xfd, 0xff, 0x64, 0x5b, 0x02, 0x00, 0x28, 0xa7, 0xfd, 0xff,
  0x2c, 0xa7, 0xfd, 0xff, 0x30, 0xa7, 0xfd, 0xff, 0x34, 0xa7, 0xfd, 0xff,
  0x38, 0xa7, 0xfd, 0xff, 0x3c, 0xa7, 0xfd, 0xff, 0x40, 0xa7, 0xfd, 0xff,
  0x44, 0xa7, 0xfd, 0xff, 0x05, 0x00, 0x00, 0x00, 0x32, 0x2e, 0x31, 0x2e,
  0x30, 0x00, 0x00, 0x00, 0x50, 0x5a, 0xfd, 0xff, 0x08, 0x00, 0x00, 0x00,
  0x1d, 0x00, 0x00, 0x00, 0x13, 0x00, 0x00, 0x00, 0x6d, 0x69, 0x6e, 0x5f,
  0x72, 0x75, 0x6e, 0x74, 0x69, 0x6d, 0x65, 0x5f, 0x76, 0x65, 0x72, 0x73,
  0x69, 0x6f, 0x6e, 0x00, 0x0c, 0x00, 0x14, 0x00, 0x04, 0x00, 0x08, 0x00,
  0x0c, 0x00, 0x10, 0x00, 0x0c, 0x00, 0x00, 0x00, 0x20, 0x00, 0x00, 0x00,
  0x14, 0x00, 0x00, 0x00, 0x08, 0x00, 0x00, 0x00, 0x94, 0xa5, 0x02, 0x00,
  0x01, 0x00, 0x00, 0x00, 0x1b, 0x00, 0x00, 0x00, 0x01, 0x00, 0x00, 0x00,
  0x19, 0x00, 0x00, 0x00, 0x1c, 0x00, 0x00, 0x00, 0x18, 0xc0, 0x01, 0x00,
  0x50, 0xa3, 0x02, 0x00, 0xd8, 0xa2, 0x02, 0x00, 0xc8, 0xc0, 0x01, 0x00,
  0x8c, 0xbf, 0x01, 0x00, 0xfc, 0x59, 0x02, 0x00, 0x84, 0x59, 0x02, 0x00,
  0x48, 0x5a, 0x02, 0x00, 0x84, 0x5a, 0x01, 0x00, 0xf4, 0xa3, 0x02, 0x00,
  0x00, 0x59, 0x02, 0x00, 0xf4, 0x5a, 0x01, 0x00, 0x38, 0x91, 0x00, 0x00,
  0x9c, 0x58, 0x02, 0x00, 0x24, 0x58, 0x02, 0x00, 0xec, 0x91, 0x00, 0x00,
  0x30, 0x00, 0x00, 0x00, 0x28, 0xa4, 0x02, 0x00, 0x64, 0x57, 0x02, 0x00,
  0xa0, 0x00, 0x00, 0x00, 0xd0, 0x57, 0x02, 0x00, 0xfc, 0x50, 0x02, 0x00,
  0x68, 0xa4, 0x02, 0x00, 0x4c, 0xa3, 0x02, 0x00, 0xac, 0x51, 0x02, 0x00,
  0xc0, 0xa4, 0x02, 0x00, 0xf4, 0x56, 0x02, 0x00, 0x98, 0x56, 0x02, 0x00,
  0x5a, 0x5b, 0xfd, 0xff, 0x10, 0x00, 0x00, 0x00, 0x1c, 0x00, 0x00, 0x00,
  0x10, 0x00, 0x00, 0x00, 0x24, 0x00, 0x00, 0x00, 0x01, 0x00, 0x00, 0x00,
  0x10, 0x00, 0x00, 0x00, 0x12, 0x00, 0x00, 0x00, 0x62, 0x6f, 0x64, 0x79,
  0x5f, 0x33, 0x2f, 0x43, 0x6f, 0x6e, 0x76, 0x32, 0x44, 0x5f, 0x62, 0x69,
  0x61, 0x73, 0x00, 0x00, 0x50, 0xa8, 0xfd, 0xff, 0x40, 0x00, 0x00, 0x00,
  0x1d, 0x7b, 0x66, 0x3c, 0xb7, 0x88, 0x5f, 0x3c, 0x8d, 0x05, 0x5d, 0x3c,
  0xe4, 0x99, 0x47, 0x3c, 0xcd, 0x85, 0x74, 0x3c, 0x39, 0xc7, 0x70, 0x3c,
  0xdd, 0x9b, 0x67, 0x3c, 0xce, 0x04, 0x5e, 0x3c, 0x3c, 0xdc, 0x66, 0x3c,
  0xc1, 0xe1, 0x70, 0x3c, 0x4c, 0x20, 0x7a, 0x3c, 0xd0, 0x29, 0x76, 0x3c,
  0x36, 0xc4, 0x70, 0x3c, 0xd3, 0x5d, 0x76, 0x3c, 0x4b, 0x9f, 0x78, 0x3c,
  0x5b, 0xfc, 0x77, 0x3c, 0xd6, 0x5b, 0xfd, 0xff, 0x10, 0x00, 0x00, 0x00,
  0x1b, 0x00, 0x00, 0x00, 0x1c, 0x00, 0x00, 0x00, 0x4c, 0x00, 0x00, 0x00,
  0x04, 0x00, 0x00, 0x00, 0x10, 0x00, 0x00, 0x00, 0x03, 0x00, 0x00, 0x00,
  0x03, 0x00, 0x00, 0x00, 0x40, 0x00, 0x00, 0x00, 0x2c, 0x00, 0x00, 0x00,
  0x62, 0x6f, 0x64, 0x79, 0x5f, 0x33, 0x2f, 0x77, 0x65, 0x69, 0x67, 0x68,
  0x74, 0x73, 0x5f, 0x71, 0x75, 0x61, 0x6e, 0x74, 0x2f, 0x46, 0x61, 0x6b,
  0x65, 0x51, 0x75, 0x61, 0x6e, 0x74, 0x57, 0x69, 0x74, 0x68, 0x4d, 0x69,
  0x6e, 0x4d, 0x61, 0x78, 0x56, 0x61, 0x72, 0x73, 0x00, 0x00, 0x00, 0x00,
  0xf0, 0x5b, 0xfd, 0xff, 0x10, 0x00, 0x00, 0x00, 0x04, 0x00, 0x00, 0x00,
  0x01, 0x00, 0x00, 0x00, 0x04, 0xd8, 0x57, 0x40, 0x01, 0x00, 0x00, 0x00,
  0x57, 0xd7, 0x88, 0xc0, 0x00, 0x90, 0x00, 0x00, 0x80, 0x04, 0xb9, 0xbd,
  0x80, 0x2e, 0x1a, 0x3e, 0x80, 0x2e, 0x1a, 0x3e, 0x80, 0x04, 0xb9, 0x3d,
  0xc0, 0xb0, 0xf6, 0x3d, 0x00, 0xb1, 0xf6, 0x3c, 0x80, 0x2e, 0x1a, 0x3e,
  0x00, 0xb1, 0x76, 0x3d, 0x80, 0x2e, 0x1a, 0x3e, 0x00, 0xb1, 0xf6, 0xbc,
  0x80, 0x04, 0xb9, 0x3d, 0x80, 0x04, 0xb9, 0x3d, 0x00, 0x00, 0x00, 0x00,
  0x70, 0xc3, 0x8a, 0x3e, 0x00, 0xb1, 0xf6, 0xbc, 0x00, 0x00, 0x00, 0x00,
  0xc0, 0xb0, 0xf6, 0xbd, 0x80, 0xb0, 0x76, 0xbd, 0xc0, 0xb0, 0xf6, 0xbd,
  0x00, 0xb1, 0x76, 0x3d, 0x80, 0x04, 0xb9, 0x3d, 0x80, 0x04, 0xb9, 0x3d,
  0xc0, 0xb0, 0x76, 0xbe, 0x00, 0xb1, 0x76, 0x3d, 0x80, 0x04, 0xb9, 0x3d,
  0x00, 0xb1, 0xf6, 0xbc, 0x80, 0x04, 0xb9, 0x3d, 0x80, 0x2e, 0x1a, 0x3e,
  0x00, 0xb1, 0xf6, 0xbc, 0x80, 0x04, 0xb9, 0x3d, 0xc0, 0xb0, 0xf6, 0xbd,
  0xc0, 0xb0, 0xf6, 0xbd, 0x80, 0x04, 0xb9, 0xbd, 0x00, 0x00, 0x00, 0x00,
  0x00, 0x00, 0x00, 0x00, 0x34, 0xfb, 0x6e, 0xbf, 0xa0, 0x6f, 0xc8, 0x3e,
  0x60, 0x2e, 0x1a, 0xbe, 0x70, 0xc3, 0x8a, 0x3e, 0x68, 0xc3, 0x0a, 0x3f,
  0x68, 0xc3, 0x8a, 0x3f, 0x00, 0xb1, 0xf6, 0x3c, 0xb8, 0xb0, 0xf6, 0xbe,
  0x80, 0xb0, 0x76, 0xbd, 0x80, 0x99, 0xa9, 0x3e, 0x00, 0x00, 0x00, 0x00,
  0x00, 0xb1, 0xf6, 0x3c, 0x80, 0x99, 0xa9, 0x3e, 0x80, 0x04, 0xb9, 0xbd,
  0x60, 0x2e, 0x1a, 0xbe, 0x00, 0x00, 0x00, 0x00, 0xe8, 0x0d, 0x03, 0x3f,
  0x60, 0x2e, 0x1a, 0xbe, 0x80, 0xb0, 0x76, 0xbd, 0x00, 0x00, 0x00, 0x00,
  0x70, 0x2e, 0x9a, 0xbe, 0x80, 0xb0, 0x76, 0xbd, 0x00, 0x00, 0x00, 0x00,
  0x00, 0xb1, 0xf6, 0xbc, 0x00, 0xb1, 0x76, 0x3d, 0x00, 0x00, 0x00, 0x00,
  0x80, 0xb0, 0x76, 0xbd, 0xa0, 0x04, 0x39, 0x3e, 0x00, 0x00, 0x00, 0x00,
  0x00, 0xb1, 0xf6, 0xbc, 0x00, 0x00, 0x00, 0x00, 0xc0, 0xb0, 0x76, 0xbe,
  0x00, 0xb1, 0x76, 0x3d, 0x80, 0x04, 0xb9, 0x3d, 0xc0, 0xb0, 0xf6, 0x3d,
  0x00, 0x00, 0x00, 0x00, 0xa0, 0x04, 0x39, 0x3e, 0xc0, 0xb0, 0xf6, 0x3d,
  0x00, 0x00, 0x00, 0x00, 0xa0, 0x04, 0x39, 0x3e, 0x00, 0xb1, 0xf6, 0x3c,
  0xc0, 0xb0, 0xf6, 0xbd, 0xc0, 0xb0, 0xf6, 0x3d, 0xc0, 0xb0, 0xf6, 0x3d,
  0xa0, 0xda, 0x57, 0xbe, 0x80, 0xb0, 0x76, 0xbd, 0x00, 0xb1, 0xf6, 0xbc,
  0x80, 0xb0, 0x76, 0xbd, 0x00, 0x00, 0x00, 0x00, 0xa0, 0x04, 0x39, 0x3e,
  0xc0, 0xb0, 0xf6, 0xbd, 0x70, 0x2e, 0x9a, 0x3e, 0x80, 0x04, 0xb9, 0x3d,
  0x70, 0xc3, 0x8a, 0x3e, 0x00, 0xb1, 0x76, 0x3d, 0xc0, 0xb0, 0xf6, 0x3d,
  0xc0, 0xb0, 0xf6, 0x3d, 0xa0, 0x04, 0x39, 0x3e, 0x00, 0xb1, 0xf6, 0x3c,
  0x80, 0x04, 0xb9, 0xbd, 0x00, 0xb1, 0xf6, 0xbc, 0xe8, 0x0d, 0x03, 0x3f,
  0x00, 0x00, 0x00, 0x00, 0x00, 0x00, 0x00, 0x00, 0xc0, 0xb0, 0xf6, 0x3d,
  0xc0, 0xb0, 0xf6, 0xbd, 0x00, 0xb1, 0x76, 0x3d, 0x00, 0x00, 0x00, 0x00,
  0x00, 0x00, 0x00, 0x00, 0x50, 0x66, 0x14, 0xc0, 0x2c, 0x9e, 0x8e, 0x3f,
  0x80, 0x2e, 0x1a, 0x3e, 0x60, 0x2e, 0x1a, 0xbe, 0xa0, 0x04, 0x39, 0x3e,
  0x00, 0x00, 0x00, 0x00, 0xa0, 0xda, 0x57, 0xbe, 0x00, 0xb1, 0xf6, 0x3c,
  0x2a, 0x9e, 0x8e, 0xbf, 0x00, 0x00, 0x00, 0x00, 0xc0, 0xb0, 0xf6, 0x3d,
  0x80, 0x04, 0xb9, 0x3d, 0xc0, 0xb0, 0xf6, 0xbd, 0x80, 0xb0, 0x76, 0xbd,
  0x70, 0xc3, 0x8a, 0x3e, 0x00, 0x00, 0x00, 0x00, 0x00, 0xb1, 0xf6, 0x3c,
  0x00, 0x00, 0x00, 0x00, 0xb0, 0x45, 0xe7, 0x3e, 0xb0, 0x45, 0x67, 0x3f,
  0x00, 0xb1, 0x76, 0x3d, 0x34, 0xfb, 0x6e, 0xbf, 0x80, 0x04, 0xb9, 0xbd,
  0x80, 0x04, 0xb9, 0x3d, 0x00, 0xb1, 0xf6, 0xbc, 0x80, 0x04, 0xb9, 0xbd,
  0x00, 0xb1, 0xf6, 0xbc, 0x00, 0xb1, 0x76, 0x3d, 0x00, 0xb1, 0xf6, 0xbc,
  0x00, 0x00, 0x00, 0x00, 0x80, 0xb0, 0x76, 0xbd, 0x80, 0x04, 0xb9, 0x3d,
  0x00, 0xb1, 0xf6, 0xbc, 0x80, 0xb0, 0x76, 0xbd, 0x80, 0xb0, 0x76, 0xbd,
  0x00, 0x00, 0x00, 0x00, 0x00, 0xb1, 0xf6, 0xbc, 0x00, 0x00, 0x00, 0x00,
  0x00, 0xb1, 0x76, 0x3d, 0x80, 0x04, 0xb9, 0xbd, 0x80, 0xb0, 0x76, 0xbd,
  0x00, 0xb1, 0xf6, 0xbc, 0x80, 0xb0, 0x76, 0xbd, 0x80, 0x2e, 0x1a, 0x3e,
  0xc0, 0xb0, 0xf6, 0x3d, 0x00, 0xb1, 0xf6, 0xbc, 0xc0, 0xb0, 0xf6, 0x3d,
  0x00, 0x00, 0x00, 0x00, 0xc0, 0xb0, 0xf6, 0x3d, 0x00, 0xb1, 0x76, 0x3d,
  0x00, 0x00, 0x00, 0x00, 0x00, 0xb1, 0xf6, 0xbc, 0x00, 0xb1, 0xf6, 0x3c,
  0x00, 0xb1, 0xf6, 0x3c, 0x00, 0xb1, 0xf6, 0x3c, 0x80, 0xb0, 0x76, 0xbd,
  0x00, 0x00, 0x00, 0x00, 0x00, 0xb1, 0xf6, 0x3c, 0x00, 0x00, 0x00, 0x00,
  0x00, 0xb1, 0xf6, 0xbc, 0x00, 0x00, 0x00, 0x00, 0x00, 0x00, 0x00, 0x00,
  0x00, 0x00, 0x00, 0x00, 0x00, 0x00, 0x00, 0x00, 0x80, 0xb0, 0x76, 0xbd,
  0x80, 0xb0, 0x76, 0xbd, 0x00, 0xb1, 0xf6, 0xbc, 0xc0, 0xb0, 0xf6, 0x3d,
  0x00, 0xb1, 0xf6, 0xbc, 0x00, 0xb1, 0xf6, 0xbc, 0x80, 0x2e, 0x1a, 0x3e,
  0x00, 0x00, 0x00, 0x00, 0x80, 0x04, 0xb9, 0x3d, 0x00, 0x00, 0x00, 0x00,
  0x00, 0x00, 0x00, 0x00, 0x00, 0xb1, 0xf6, 0x3c, 0x00, 0xb1, 0xf6, 0xbc,
  0x00, 0xb1, 0xf6, 0x3c, 0x80, 0xb0, 0x76, 0xbd, 0x00, 0x00, 0x00, 0x00,
  0x80, 0x04, 0xb9, 0xbd, 0xa0, 0x04, 0x39, 0x3e, 0x00, 0x00, 0x00, 0x00,
  0x00, 0x00, 0x00, 0x00, 0x60, 0x2e, 0x1a, 0xbe, 0x5a, 0x4a, 0xcc, 0xbf,
  0x00, 0xb1, 0xf6, 0xbc, 0x00, 0xb1, 0xf6, 0xbc, 0x80, 0xb0, 0x76, 0xbd,
  0x00, 0xb1, 0xf6, 0xbc, 0x80, 0x04, 0xb9, 0x3d, 0xc0, 0xb0, 0x76, 0x3e,
  0x00, 0x00, 0x00, 0x00, 0xc0, 0xb0, 0xf6, 0x3d, 0xc0, 0xb0, 0x76, 0x3e,
  0x00, 0xb1, 0xf6, 0xbc, 0x00, 0x00, 0x00, 0x00, 0x00, 0xb1, 0xf6, 0x3c,
  0x80, 0x04, 0xb9, 0x3d, 0xa0, 0x04, 0x39, 0x3e, 0x80, 0x2e, 0x1a, 0x3e,
  0x88, 0x04, 0xb9, 0xbe, 0xc0, 0xb0, 0xf6, 0x3d, 0xc0, 0xb0, 0x76, 0x3e,
  0xc0, 0xb0, 0xf6, 0xbd, 0xa0, 0xda, 0x57, 0x3e, 0x80, 0x04, 0xb9, 0xbd,
  0x00, 0xb1, 0x76, 0x3d, 0xc0, 0xb0, 0x76, 0x3e, 0x80, 0x04, 0xb9, 0x3d,
  0x00, 0xb1, 0xf6, 0x3c, 0x80, 0xb0, 0x76, 0xbd, 0x00, 0xb1, 0xf6, 0xbc,
  0x00, 0x00, 0x00, 0x00, 0x70, 0x2e, 0x9a, 0x3e, 0x00, 0xb1, 0xf6, 0x3c,
  0x60, 0x2e, 0x1a, 0xbe, 0x80, 0x04, 0xb9, 0x3d, 0xc0, 0xb0, 0x76, 0x3e,
  0x80, 0x2e, 0x1a, 0x3e, 0x80, 0x2e, 0x1a, 0x3e, 0x00, 0xb1, 0xf6, 0x3c,
  0x70, 0x2e, 0x9a, 0xbe, 0x70, 0xc3, 0x8a, 0x3e, 0x88, 0x04, 0xb9, 0xbe,
  0x40, 0x66, 0xfe, 0xbf, 0x2c, 0x9e, 0x8e, 0x3f, 0x2a, 0x9e, 0x8e, 0xbf,
  0xc0, 0xb0, 0xf6, 0x3d, 0x00, 0xb1, 0xf6, 0xbc, 0x00, 0x00, 0x00, 0x00,
  0xc0, 0xb0, 0xf6, 0xbd, 0x00, 0x00, 0x00, 0x00, 0x80, 0x04, 0xb9, 0x3d,
  0x00, 0xb1, 0xf6, 0x3c, 0x8e, 0x8b, 0x10, 0x40, 0x00, 0x00, 0x00, 0x00,
  0x10, 0xba, 0x40, 0xbf, 0xc0, 0xb0, 0xf6, 0x3d, 0x70, 0xc3, 0x8a, 0x3e,
  0xa0, 0x6f, 0xc8, 0x3e, 0x80, 0xb0, 0x76, 0xbd, 0xa0, 0x04, 0x39, 0x3e,
  0x00, 0x00, 0x00, 0x00, 0x00, 0xb1, 0xf6, 0x3c, 0x00, 0x00, 0x00, 0x00,
  0x70, 0x2e, 0x9a, 0xbe, 0x00, 0x00, 0x00, 0x00, 0x80, 0xb0, 0x76, 0xbd,
  0x00, 0x00, 0x00, 0x00, 0x80, 0x99, 0xa9, 0xbe, 0x00, 0xb1, 0xf6, 0x3c,
  0x80, 0x2e, 0x1a, 0x3e, 0x00, 0xb1, 0xf6, 0xbc, 0x70, 0x2e, 0x9a, 0xbe,
  0xc0, 0xb0, 0xf6, 0x3d, 0x00, 0xb1, 0x76, 0x3d, 0x00, 0xb1, 0xf6, 0x3c,
  0x70, 0xc3, 0x8a, 0x3e, 0xa0, 0x04, 0x39, 0x3e, 0xc0, 0xb0, 0xf6, 0x3d,
  0x00, 0x00, 0x00, 0x00, 0xc0, 0xb0, 0xf6, 0x3d, 0x80, 0x04, 0xb9, 0x3d,
  0xa0, 0x04, 0x39, 0x3e, 0xa0, 0xda, 0x57, 0xbe, 0x80, 0x04, 0xb9, 0x3d,
  0x80, 0xb0, 0x76, 0xbd, 0x00, 0xb1, 0xf6, 0xbc, 0x00, 0xb1, 0xf6, 0x3c,
  0x00, 0x00, 0x00, 0x00, 0x00, 0x00, 0x00, 0x00, 0x00, 0xb1, 0xf6, 0xbc,
  0x80, 0xb0, 0x76, 0xbd, 0xc0, 0xb0, 0xf6, 0x3d, 0xc0, 0xb0, 0x76, 0x3e,
  0x80, 0x04, 0xb9, 0x3d, 0x00, 0xb1, 0xf6, 0xbc, 0xa0, 0xda, 0x57, 0x3e,
  0x80, 0x04, 0xb9, 0x3d, 0xc0, 0xb0, 0x76, 0x3e, 0x00, 0x00, 0x00, 0x00,
  0x80, 0x04, 0xb9, 0xbd, 0x80, 0x04, 0xb9, 0x3d, 0xc0, 0xb0, 0xf6, 0x3d,
  0xa0, 0xda, 0xd7, 0x3e, 0x00, 0x00, 0x00, 0x00, 0x00, 0xb1, 0x76, 0x3d,
  0x70, 0x2e, 0x9a, 0x3e, 0x80, 0x04, 0xb9, 0x3d, 0x00, 0x00, 0x00, 0x00,
  0x80, 0xb0, 0x76, 0xbd, 0x00, 0x00, 0x00, 0x00, 0x50, 0x66, 0x14, 0x40,
  0x80, 0xb0, 0x76, 0xbd, 0xa0, 0x6f, 0xc8, 0x3e, 0x80, 0xb0, 0x76, 0xbd,
  0x80, 0x04, 0xb9, 0xbd, 0x40, 0x66, 0x7e, 0xbf, 0xc0, 0xb0, 0xf6, 0x3d,
  0x80, 0xb0, 0x76, 0xbd, 0xc0, 0xb0, 0x76, 0x3e, 0xac, 0x45, 0x67, 0xbf,
  0x80, 0x04, 0xb9, 0x3d, 0x80, 0x04, 0xb9, 0x3d, 0x80, 0x99, 0xa9, 0xbe,
  0x80, 0x99, 0xa9, 0xbe, 0x00, 0x00, 0x00, 0x00, 0xb0, 0x45, 0xe7, 0x3e,
  0x00, 0x00, 0x00, 0x00, 0xa0, 0xda, 0x57, 0xbe, 0x00, 0xb1, 0x76, 0x3d,
  0x20, 0x25, 0x50, 0x3f, 0x70, 0x2e, 0x9a, 0xbe, 0x60, 0xc3, 0x8a, 0xbe,
  0x90, 0x04, 0x39, 0x3f, 0x00, 0xb1, 0xf6, 0xbc, 0x80, 0xb0, 0x76, 0xbd,
  0x00, 0xb1, 0xf6, 0xbc, 0x00, 0x00, 0x00, 0x00, 0x80, 0x04, 0xb9, 0x3d,
  0xc0, 0xb0, 0xf6, 0x3d, 0x00, 0xb1, 0xf6, 0xbc, 0xc0, 0xb0, 0xf6, 0xbd,
  0xc0, 0xb0, 0xf6, 0x3d, 0x00, 0xb1, 0x76, 0x3d, 0x00, 0xb1, 0x76, 0x3d,
  0xc0, 0xb0, 0xf6, 0x3d, 0x00, 0xb1, 0xf6, 0x3c, 0x00, 0x00, 0x00, 0x00,
  0x80, 0x04, 0xb9, 0xbd, 0x00, 0xb1, 0xf6, 0xbc, 0x80, 0xb0, 0x76, 0xbd,
  0x00, 0x00, 0x00, 0x00, 0x00, 0xb1, 0xf6, 0x3c, 0x00, 0xb1, 0xf6, 0x3c,
  0x00, 0xb1, 0xf6, 0xbc, 0x80, 0xb0, 0x76, 0xbd, 0x00, 0xb1, 0x76, 0x3d,
  0x80, 0x04, 0xb9, 0x3d, 0x00, 0xb1, 0xf6, 0x3c, 0x00, 0xb1, 0xf6, 0x3c,
  0xa0, 0x04, 0x39, 0x3e, 0x00, 0xb1, 0x76, 0x3d, 0xc0, 0xb0, 0xf6, 0x3d,
  0x00, 0xb1, 0x76, 0x3d, 0x00, 0xb1, 0x76, 0x3d, 0x80, 0x04, 0xb9, 0xbd,
  0x00, 0x00, 0x00, 0x00, 0xa0, 0xda, 0x57, 0x3e, 0x00, 0x00, 0x00, 0x00,
  0x00, 0xb1, 0xf6, 0xbc, 0x00, 0x00, 0x00, 0x00, 0x00, 0xb1, 0xf6, 0x3c,
  0x00, 0x00, 0x00, 0x00, 0x00, 0xb1, 0xf6, 0x3c, 0x00, 0xb1, 0xf6, 0x3c,
  0xb8, 0xb0, 0xf6, 0xbe, 0x00, 0xb1, 0xf6, 0xbc, 0x00, 0xb1, 0xf6, 0x3c,
  0x00, 0xb1, 0xf6, 0x3c, 0x00, 0x00, 0x00, 0x00, 0xc0, 0xb0, 0xf6, 0x3d,
  0x00, 0xb1, 0xf6, 0x3c, 0x00, 0xb1, 0xf6, 0xbc, 0x00, 0xb1, 0xf6, 0xbc,
  0x00, 0xb1, 0xf6, 0xbc, 0x00, 0x00, 0x00, 0x00, 0x00, 0x00, 0x00, 0x00,
  0x00, 0xb1, 0xf6, 0x3c, 0x00, 0x00, 0x00, 0x00, 0x00, 0x00, 0x00, 0x00,
  0xc0, 0xb0, 0x76, 0x3e, 0x68, 0xc3, 0x0a, 0xbf, 0x00, 0xb1, 0x76, 0x3d,
  0x00, 0x00, 0x00, 0x00, 0xc0, 0xb0, 0x76, 0xbe, 0x60, 0xc3, 0x8a, 0xbe,
  0x00, 0xb1, 0xf6, 0xbc, 0x80, 0xb0, 0x76, 0xbd, 0x00, 0xb1, 0x76, 0x3d,
  0x00, 0x00, 0x00, 0x00, 0x00, 0x00, 0x00, 0x00, 0x00, 0xb1, 0x76, 0x3d,
  0x00, 0xb1, 0xf6, 0xbc, 0x00, 0x00, 0x00, 0x00, 0x00, 0xb1, 0x76, 0x3d,
  0x00, 0xb1, 0xf6, 0xbc, 0xc0, 0xb0, 0xf6, 0xbd, 0x80, 0x04, 0x39, 0xbe,
  0x80, 0x2e, 0x1a, 0x3e, 0x00, 0xb1, 0xf6, 0x3c, 0x80, 0x04, 0xb9, 0x3d,
  0x00, 0x00, 0x00, 0x00, 0x80, 0x04, 0xb9, 0x3d, 0x00, 0x00, 0x00, 0x00,
  0x80, 0xb0, 0x76, 0xbd, 0x80, 0x04, 0xb9, 0xbd, 0x00, 0x00, 0x00, 0x00,
  0x80, 0x04, 0xb9, 0x3d, 0x00, 0x00, 0x00, 0x00, 0x00, 0xb1, 0xf6, 0x3c,
  0x00, 0x00, 0x00, 0x00, 0x00, 0x00, 0x00, 0x00, 0x80, 0x04, 0xb9, 0x3d,
  0x00, 0xb1, 0xf6, 0xbc, 0x80, 0x2e, 0x1a, 0x3e, 0xa0, 0x04, 0x39, 0x3e,
  0x80, 0xb0, 0x76, 0xbd, 0xc0, 0xb0, 0xf6, 0x3d, 0x80, 0x2e, 0x1a, 0x3e,
  0x00, 0x00, 0x00, 0x00, 0x00, 0x00, 0x00, 0x00, 0x00, 0xb1, 0xf6, 0x3c,
  0x00, 0xb1, 0x76, 0x3d, 0x00, 0xb1, 0xf6, 0x3c, 0x00, 0x00, 0x00, 0x00,
  0x80, 0xb0, 0x76, 0xbd, 0x00, 0xb1, 0xf6, 0xbc, 0x00, 0x00, 0x00, 0x00,
  0x80, 0xb0, 0x76, 0xbd, 0x00, 0x00, 0x00, 0x00, 0x00, 0x00, 0x00, 0x00,
  0x80, 0xb0, 0x76, 0xbd, 0x00, 0xb1, 0xf6, 0x3c, 0xb0, 0x45, 0xe7, 0x3e,
  0x00, 0x00, 0x00, 0x00, 0xc0, 0xb0, 0x76, 0x3e, 0x00, 0x00, 0x00, 0x00,
  0x00, 0xb1, 0xf6, 0xbc, 0x00, 0x00, 0x00, 0x00, 0x00, 0xb1, 0xf6, 0x3c,
  0x80, 0x04, 0xb9, 0xbd, 0x00, 0x00, 0x00, 0x00, 0x00, 0xb1, 0xf6, 0xbc,
  0x00, 0x00, 0x00, 0x00, 0x00, 0x00, 0x00, 0x00, 0x00, 0x00, 0x00, 0x00,
  0x00, 0x00, 0x00, 0x00, 0x00, 0xb1, 0xf6, 0xbc, 0x00, 0xb1, 0xf6, 0xbc,
  0x00, 0x00, 0x00, 0x00, 0x04, 0x4f, 0x31, 0xbf, 0x00, 0xb1, 0x76, 0x3d,
  0x00, 0x00, 0x00, 0x00, 0x00, 0xb1, 0xf6, 0xbc, 0x00, 0xb1, 0xf6, 0x3c,
  0x80, 0x2e, 0x1a, 0x3e, 0x80, 0xb0, 0x76, 0xbd, 0x00, 0xb1, 0xf6, 0x3c,
  0x00, 0xb1, 0xf6, 0xbc, 0x00, 0x00, 0x00, 0x00, 0x00, 0xb1, 0xf6, 0xbc,
  0x80, 0xb0, 0x76, 0xbd, 0x00, 0xb1, 0xf6, 0xbc, 0x80, 0xb0, 0x76, 0xbd,
  0x00, 0xb1, 0xf6, 0x3c, 0x00, 0xb1, 0xf6, 0xbc, 0x00, 0xb1, 0x76, 0x3d,
  0x00, 0x00, 0x00, 0x00, 0x80, 0xb0, 0x76, 0xbd, 0x00, 0xb1, 0xf6, 0x3c,
  0x00, 0x00, 0x00, 0x00, 0x00, 0xb1, 0xf6, 0x3c, 0x00, 0x00, 0x00, 0x00,
  0x00, 0x00, 0x00, 0x00, 0x00, 0xb1, 0xf6, 0xbc, 0xc0, 0xb0, 0xf6, 0x3d,
  0x00, 0x00, 0x00, 0x00, 0x00, 0xb1, 0xf6, 0xbc, 0x00, 0x00, 0x00, 0x00,
  0x00, 0x00, 0x00, 0x00, 0x00, 0xb1, 0x76, 0x3d, 0x00, 0xb1, 0x76, 0x3d,
  0x80, 0xb0, 0x76, 0xbd, 0x00, 0xb1, 0x76, 0x3d, 0x00, 0x00, 0x00, 0x00,
  0xa0, 0xda, 0x57, 0xbe, 0x00, 0xb1, 0xf6, 0x3c, 0x00, 0x00, 0x00, 0x00,
  0x00, 0xb1, 0xf6, 0x3c, 0x00, 0x00, 0x00, 0x00, 0x00, 0x00, 0x00, 0x00,
  0x00, 0x00, 0x00, 0x00, 0x00, 0xb1, 0xf6, 0xbc, 0xb0, 0x45, 0xe7, 0x3e,
  0x00, 0x00, 0x00, 0x00, 0x80, 0xb0, 0x76, 0xbd, 0x00, 0x00, 0x00, 0x00,
  0x74, 0xa7, 0x42, 0x40, 0xa0, 0xda, 0x57, 0xbe, 0x80, 0x04, 0xb9, 0xbd,
  0x00, 0xb1, 0xf6, 0x3c, 0x00, 0xb1, 0xf6, 0xbc, 0x00, 0xb1, 0x76, 0x3d,
  0x00, 0xb1, 0xf6, 0x3c, 0x00, 0xb1, 0xf6, 0xbc, 0x00, 0xb1, 0xf6, 0x3c,
  0x00, 0x00, 0x00, 0x00, 0x00, 0x00, 0x00, 0x00, 0x00, 0xb1, 0xf6, 0xbc,
  0x70, 0xc3, 0x8a, 0x3e, 0x00, 0x00, 0x00, 0x00, 0x00, 0x00, 0x00, 0x00,
  0x00, 0x00, 0x00, 0x00, 0x00, 0x00, 0x00, 0x00, 0x80, 0x04, 0xb9, 0x3d,
  0x00, 0xb1, 0xf6, 0xbc, 0x00, 0xb1, 0xf6, 0x3c, 0x00, 0xb1, 0xf6, 0xbc,
  0x00, 0x00, 0x00, 0x00, 0x00, 0x00, 0x00, 0x00, 0xc0, 0xb0, 0xf6, 0x3d,
  0x00, 0xb1, 0xf6, 0xbc, 0x00, 0x00, 0x00, 0x00, 0x00, 0x00, 0x00, 0x00,
  0x00, 0xb1, 0xf6, 0x3c, 0x80, 0xb0, 0x76, 0xbd, 0x00, 0xb1, 0xf6, 0x3c,
  0x00, 0xb1, 0xf6, 0xbc, 0x00, 0xb1, 0xf6, 0xbc, 0x00, 0x00, 0x00, 0x00,
  0x00, 0xb1, 0xf6, 0xbc, 0x00, 0xb1, 0xf6, 0x3c, 0x00, 0xb1, 0xf6, 0xbc,
  0x00, 0xb1, 0xf6, 0x3c, 0x00, 0xb1, 0xf6, 0x3c, 0x00, 0xb1, 0xf6, 0x3c,
  0x00, 0xb1, 0xf6, 0x3c, 0x00, 0x00, 0x00, 0x00, 0x00, 0xb1, 0xf6, 0x3c,
  0xc0, 0xb0, 0xf6, 0x3d, 0x00, 0xb1, 0xf6, 0x3c, 0x00, 0x00, 0x00, 0x00,
  0x60, 0x2e, 0x1a, 0xbe, 0xc0, 0xb0, 0xf6, 0x3d, 0x00, 0xb1, 0xf6, 0x3c,
  0x80, 0xb0, 0x76, 0xbd, 0x00, 0xb1, 0x76, 0x3d, 0x80, 0x04, 0xb9, 0x3d,
  0x00, 0x00, 0x00, 0x00, 0x80, 0x04, 0xb9, 0xbd, 0x00, 0x00, 0x00, 0x00,
  0x00, 0x00, 0x00, 0x00, 0x00, 0x00, 0x00, 0x00, 0x00, 0x00, 0x00, 0x00,
  0x00, 0x00, 0x00, 0x00, 0x00, 0x00, 0x00, 0x00, 0x00, 0x00, 0x00, 0x00,
  0x80, 0x04, 0xb9, 0xbd, 0x00, 0x00, 0x00, 0x00, 0x00, 0xb1, 0xf6, 0x3c,
  0x00, 0x00, 0x00, 0x00, 0x00, 0xb1, 0xf6, 0xbc, 0x80, 0x04, 0xb9, 0x3d,
  0x80, 0xb0, 0x76, 0xbd, 0x00, 0x00, 0x00, 0x00, 0x00, 0x00, 0x00, 0x00,
  0x00, 0xb1, 0x76, 0x3d, 0x00, 0x00, 0x00, 0x00, 0x00, 0x00, 0x00, 0x00,
  0x00, 0x00, 0x00, 0x00, 0x00, 0x00, 0x00, 0x00, 0x00, 0x00, 0x00, 0x00,
  0x00, 0x00, 0x00, 0x00, 0x80, 0x04, 0xb9, 0x3d, 0x00, 0xb1, 0xf6, 0xbc,
  0x00, 0x00, 0x00, 0x00, 0x00, 0xb1, 0xf6, 0x3c, 0x00, 0xb1, 0xf6, 0x3c,
  0x00, 0xb1, 0xf6, 0x3c, 0x00, 0xb1, 0xf6, 0xbc, 0x00, 0xb1, 0xf6, 0xbc,
  0xc0, 0xb0, 0xf6, 0x3d, 0xa0, 0x04, 0x39, 0x3e, 0x80, 0xb0, 0x76, 0xbd,
  0xa0, 0x04, 0x39, 0x3e, 0x80, 0x04, 0xb9, 0x3d, 0xc0, 0xb0, 0x76, 0x3e,
  0x80, 0xb0, 0x76, 0xbd, 0x80, 0x04, 0xb9, 0x3d, 0x80, 0x04, 0xb9, 0xbd,
  0x00, 0xb1, 0x76, 0x3d, 0x00, 0xb1, 0x76, 0x3d, 0x80, 0x04, 0xb9, 0xbd,
  0xa0, 0xda, 0x57, 0x3e, 0x80, 0xb0, 0x76, 0xbd, 0x00, 0x00, 0x00, 0x00,
  0x60, 0x2e, 0x1a, 0xbe, 0x00, 0x00, 0x00, 0x00, 0x80, 0xb0, 0x76, 0xbd,
  0x00, 0xb1, 0x76, 0x3d, 0x80, 0x04, 0xb9, 0x3d, 0xc0, 0xb0, 0xf6, 0x3d,
  0x80, 0x04, 0x39, 0xbe, 0x80, 0x04, 0xb9, 0x3d, 0xc0, 0xb0, 0xf6, 0x3d,
  0x00, 0xb1, 0xf6, 0xbc, 0x00, 0xb1, 0xf6, 0xbc, 0x80, 0x04, 0xb9, 0x3d,
  0x80, 0x04, 0xb9, 0xbd, 0x80, 0x04, 0xb9, 0x3d, 0xc0, 0xb0, 0xf6, 0xbd,
  0x00, 0xb1, 0xf6, 0x3c, 0xc0, 0xb0, 0xf6, 0xbd, 0x00, 0xb1, 0xf6, 0x3c,
  0x00, 0xb1, 0x76, 0x3d, 0x28, 0x90, 0x5f, 0xbf, 0x80, 0x99, 0xa9, 0x3e,
  0xc0, 0xb0, 0xf6, 0xbd, 0x80, 0x2e, 0x1a, 0x3e, 0x80, 0x99, 0x29, 0xbf,
  0x00, 0xb1, 0xf6, 0xbc, 0x00, 0x00, 0x00, 0x00, 0xac, 0x45, 0x67, 0xbf,
  0x00, 0xb1, 0xf6, 0xbc, 0xe8, 0x0d, 0x03, 0x3f, 0x00, 0x00, 0x00, 0x00,
  0x00, 0xb1, 0x76, 0x3d, 0x88, 0x04, 0xb9, 0xbe, 0x80, 0xb0, 0x76, 0xbd,
  0xc0, 0xb0, 0xf6, 0xbd, 0x00, 0xb1, 0xf6, 0xbc, 0xa0, 0xda, 0xd7, 0x3e,
  0x80, 0x04, 0xb9, 0xbd, 0x00, 0xb1, 0xf6, 0xbc, 0x80, 0xb0, 0x76, 0xbd,
  0xa0, 0xda, 0x57, 0xbe, 0x00, 0xb1, 0xf6, 0xbc, 0x00, 0xb1, 0xf6, 0xbc,
  0x00, 0x00, 0x00, 0x00, 0x80, 0x04, 0xb9, 0xbd, 0x00, 0x00, 0x00, 0x00,
  0x80, 0xb0, 0x76, 0xbd, 0xa0, 0xda, 0x57, 0x3e, 0x00, 0xb1, 0x76, 0x3d,
  0xc0, 0xb0, 0xf6, 0xbd, 0x00, 0x00, 0x00, 0x00, 0xc0, 0xb0, 0x76, 0xbe,
  0xa0, 0xda, 0x57, 0x3e, 0x00, 0xb1, 0xf6, 0xbc, 0x80, 0x04, 0xb9, 0x3d,
  0x00, 0xb1, 0xf6, 0x3c, 0x80, 0x2e, 0x1a, 0x3e, 0x00, 0xb1, 0x76, 0x3d,
  0x00, 0xb1, 0xf6, 0x3c, 0xc0, 0xb0, 0x76, 0x3e, 0x00, 0xb1, 0xf6, 0xbc,
  0x80, 0x04, 0xb9, 0xbd, 0xa0, 0xda, 0x57, 0x3e, 0x00, 0x00, 0x00, 0x00,
  0xa0, 0xda, 0x57, 0xbe, 0x00, 0xb1, 0xf6, 0xbc, 0x80, 0x04, 0x39, 0xbe,
  0x80, 0x04, 0xb9, 0xbd, 0x80, 0x2e, 0x1a, 0x3e, 0xa0, 0x04, 0x39, 0x3e,
  0x00, 0xb1, 0xf6, 0xbc, 0x80, 0x04, 0xb9, 0x3d, 0x00, 0xb1, 0x76, 0x3d,
  0xa0, 0x04, 0x39, 0x3e, 0x00, 0xb1, 0x76, 0x3d, 0x00, 0xb1, 0x76, 0x3d,
  0xc0, 0xb0, 0xf6, 0x3d, 0xa0, 0xda, 0x57, 0x3e, 0xc0, 0xb0, 0xf6, 0x3d,
  0x00, 0xb1, 0xf6, 0xbc, 0x80, 0xb0, 0x76, 0xbd, 0xb0, 0x45, 0xe7, 0x3e,
  0x00, 0x00, 0x00, 0x00, 0x00, 0x00, 0x00, 0x00, 0x90, 0x04, 0xb9, 0x3e,
  0x80, 0xb0, 0x76, 0xbd, 0x00, 0x00, 0x00, 0x00, 0x80, 0x04, 0xb9, 0x3d,
  0x80, 0xb0, 0x76, 0xbd, 0x8c, 0x04, 0x39, 0xbf, 0xb0, 0x45, 0x67, 0x3f,
  0xa0, 0xda, 0xd7, 0x3e, 0x00, 0xb1, 0xf6, 0x3c, 0x00, 0x00, 0x00, 0x00,
  0x00, 0xb1, 0xf6, 0x3c, 0x00, 0xb1, 0xf6, 0xbc, 0xc0, 0xb0, 0x76, 0x3e,
  0x38, 0xfb, 0x6e, 0x3f, 0xa0, 0xda, 0x57, 0x3e, 0xc0, 0xb0, 0xf6, 0x3d,
  0xa8, 0xda, 0x57, 0x3f, 0xc0, 0xb0, 0x76, 0xbe, 0x80, 0x04, 0x39, 0xbe,
  0x68, 0xc3, 0x0a, 0x3f, 0x80, 0xb0, 0x76, 0xbd, 0x00, 0x00, 0x00, 0x00,
  0x00, 0xb1, 0xf6, 0xbc, 0x90, 0x04, 0xb9, 0x3e, 0x74, 0x2e, 0x9a, 0x3f,
  0x00, 0xb1, 0xf6, 0xbc, 0x34, 0xfb, 0x6e, 0xbf, 0x80, 0x04, 0xb9, 0xbd,
  0x60, 0x2e, 0x1a, 0xbe, 0x00, 0xb1, 0xf6, 0xbc, 0xc0, 0xb0, 0xf6, 0xbd,
  0x80, 0x04, 0xb9, 0xbd, 0x80, 0x2e, 0x1a, 0x3e, 0x00, 0xb1, 0xf6, 0x3c,
  0x80, 0x04, 0xb9, 0x3d, 0x00, 0x00, 0x00, 0x00, 0xc0, 0xb0, 0xf6, 0x3d,
  0x00, 0xb1, 0xf6, 0x3c, 0x80, 0x04, 0xb9, 0xbd, 0x60, 0x2e, 0x1a, 0xbe,
  0x80, 0x04, 0xb9, 0xbd, 0x00, 0xb1, 0xf6, 0xbc, 0x00, 0xb1, 0xf6, 0xbc,
  0x80, 0x04, 0xb9, 0x3d, 0x80, 0xb0, 0x76, 0xbd, 0xc0, 0xb0, 0xf6, 0xbd,
  0x00, 0xb1, 0x76, 0x3d, 0x00, 0xb1, 0xf6, 0xbc, 0x00, 0xb1, 0x76, 0x3d,
  0x00, 0xb1, 0x76, 0x3d, 0x80, 0x04, 0xb9, 0xbd, 0xa0, 0x04, 0x39, 0x3e,
  0xc0, 0xb0, 0xf6, 0x3d, 0x00, 0xb1, 0xf6, 0xbc, 0x00, 0xb1, 0x76, 0x3d,
  0x00, 0xb1, 0xf6, 0x3c, 0x80, 0x04, 0xb9, 0x3d, 0x80, 0x04, 0xb9, 0x3d,
  0x00, 0xb1, 0x76, 0x3d, 0x00, 0xb1, 0x76, 0x3d, 0x60, 0x2e, 0x1a, 0xbe,
  0x00, 0xb1, 0x76, 0x3d, 0x00, 0xb1, 0xf6, 0x3c, 0x00, 0x00, 0x00, 0x00,
  0x00, 0x00, 0x00, 0x00, 0x00, 0xb1, 0xf6, 0xbc, 0x00, 0x00, 0x00, 0x00,
  0x00, 0xb1, 0xf6, 0xbc, 0x00, 0x00, 0x00, 0x00, 0xa8, 0xda, 0x57, 0x3f,
  0x80, 0x04, 0xb9, 0x3d, 0x00, 0x00, 0x00, 0x00, 0x00, 0xb1, 0x76, 0x3d,
  0x00, 0xb1, 0xf6, 0xbc, 0x00, 0x00, 0x00, 0x00, 0x00, 0xb1, 0xf6, 0xbc,
  0x00, 0xb1, 0xf6, 0x3c, 0x90, 0x04, 0xb9, 0x3e, 0x00, 0x00, 0x00, 0x00,
  0x80, 0x04, 0xb9, 0x3d, 0x00, 0x00, 0x00, 0x00, 0x00, 0xb1, 0xf6, 0xbc,
  0x00, 0xb1, 0x76, 0x3d, 0xc0, 0xb0, 0xf6, 0xbd, 0x00, 0x00, 0x00, 0x00,
  0x60, 0x2e, 0x1a, 0xbe, 0x80, 0xb0, 0x76, 0xbd, 0x00, 0xb1, 0x76, 0x3d,
  0xc0, 0xb0, 0xf6, 0xbd, 0x70, 0x2e, 0x9a, 0xbe, 0xd4, 0x94, 0xc4, 0xbf,
  0x00, 0xb1, 0xf6, 0xbc, 0x00, 0xb1, 0xf6, 0xbc, 0x00, 0xb1, 0xf6, 0xbc,
  0x00, 0x00, 0x00, 0x00, 0xa0, 0x04, 0x39, 0x3e, 0x80, 0x2e, 0x1a, 0x3e,
  0x80, 0x2e, 0x1a, 0x3e, 0xc0, 0xb0, 0xf6, 0x3d, 0x00, 0xb1, 0xf6, 0x3c,
  0xc0, 0xb0, 0xf6, 0xbd, 0x80, 0x04, 0xb9, 0x3d, 0xa0, 0xda, 0x57, 0x3e,
  0xc0, 0xb0, 0xf6, 0x3d, 0xa0, 0x04, 0x39, 0x3e, 0xa0, 0x04, 0x39, 0x3e,
  0x60, 0xc3, 0x8a, 0xbe, 0xc0, 0xb0, 0xf6, 0x3d, 0x80, 0x2e, 0x1a, 0x3e,
  0x60, 0x2e, 0x1a, 0xbe, 0x80, 0x04, 0xb9, 0x3d, 0x80, 0xb0, 0x76, 0xbd,
  0xc0, 0xb0, 0xf6, 0x3d, 0x80, 0x04, 0xb9, 0x3d, 0x00, 0x00, 0x00, 0x00,
  0x00, 0xb1, 0xf6, 0x3c, 0x00, 0xb1, 0xf6, 0xbc, 0xc0, 0xb0, 0x76, 0x3e,
  0x00, 0xb1, 0xf6, 0x3c, 0x80, 0x04, 0xb9, 0x3d, 0x80, 0x04, 0xb9, 0x3d,
  0x60, 0x2e, 0x1a, 0xbe, 0x00, 0x00, 0x00, 0x00, 0xc0, 0xb0, 0xf6, 0x3d,
  0x00, 0xb1, 0x76, 0x3d, 0x00, 0xb1, 0x76, 0x3d, 0x00, 0xb1, 0xf6, 0x3c,
  0xb8, 0xb0, 0x76, 0xbf, 0xa0, 0xda, 0x57, 0x3e, 0x00, 0xb1, 0xf6, 0xbc,
  0x1c, 0x25, 0xd0, 0xbf, 0xc0, 0xb0, 0xf6, 0xbd, 0x00, 0xb1, 0xf6, 0xbc,
  0x00, 0xb1, 0xf6, 0x3c, 0x00, 0xb1, 0xf6, 0xbc, 0x00, 0xb1, 0xf6, 0x3c,
  0xc0, 0xb0, 0xf6, 0xbd, 0x00, 0x00, 0x00, 0x00, 0x80, 0x04, 0xb9, 0x3d,
  0x00, 0xb1, 0xf6, 0xbc, 0x74, 0x2e, 0x1a, 0x40, 0x00, 0x00, 0x00, 0x00,
  0x98, 0x6f, 0xc8, 0xbe, 0x00, 0xb1, 0xf6, 0x3c, 0x00, 0x00, 0x00, 0x00,
  0x70, 0x2e, 0x9a, 0x3e, 0x00, 0xb1, 0xf6, 0x3c, 0x80, 0x04, 0xb9, 0x3d,
  0x00, 0xb1, 0xf6, 0x3c, 0x00, 0xb1, 0xf6, 0x3c, 0x00, 0x00, 0x00, 0x00,
  0x80, 0x04, 0x39, 0xbe, 0x00, 0x00, 0x00, 0x00, 0x80, 0xb0, 0x76, 0xbd,
  0x00, 0xb1, 0xf6, 0x3c, 0xc0, 0xb0, 0xf6, 0xbd, 0x80, 0x04, 0xb9, 0x3d,
  0x80, 0x2e, 0x1a, 0x3e, 0x00, 0xb1, 0x76, 0x3d, 0x98, 0x6f, 0xc8, 0xbe,
  0x00, 0xb1, 0xf6, 0xbc, 0x00, 0xb1, 0xf6, 0x3c, 0x80, 0x04, 0xb9, 0x3d,
  0x80, 0x04, 0xb9, 0x3d, 0x70, 0xc3, 0x8a, 0x3e, 0x80, 0x04, 0xb9, 0x3d,
  0x00, 0xb1, 0x76, 0x3d, 0x70, 0xc3, 0x8a, 0x3e, 0x00, 0xb1, 0xf6, 0x3c,
  0xa0, 0x04, 0x39, 0x3e, 0xc0, 0xb0, 0x76, 0xbe, 0x80, 0x04, 0xb9, 0x3d,
  0xc0, 0xb0, 0xf6, 0x3d, 0x00, 0xb1, 0xf6, 0x3c, 0x00, 0xb1, 0xf6, 0x3c,
  0x80, 0xb0, 0x76, 0xbd, 0xc0, 0xb0, 0xf6, 0x3d, 0x00, 0xb1, 0xf6, 0xbc,
  0x00, 0x00, 0x00, 0x00, 0x80, 0x04, 0xb9, 0x3d, 0xa0, 0xda, 0x57, 0x3e,
  0x00, 0x00, 0x00, 0x00, 0x80, 0x04, 0xb9, 0xbd, 0x70, 0xc3, 0x8a, 0x3e,
  0x80, 0x2e, 0x1a, 0x3e, 0xa0, 0xda, 0x57, 0x3e, 0x80, 0x04, 0xb9, 0xbd,
  0xc0, 0xb0, 0xf6, 0x3d, 0x80, 0x2e, 0x1a, 0x3e, 0xa0, 0xda, 0x57, 0x3e,
  0x80, 0x2e, 0x1a, 0x3e, 0x00, 0xb1, 0xf6, 0x3c, 0x80, 0x04, 0x39, 0xbe,
  0x80, 0x99, 0xa9, 0xbe, 0x60, 0x2e, 0x1a, 0xbe, 0x00, 0x00, 0x00, 0x00,
  0x80, 0x04, 0xb9, 0x3d, 0x00, 0xb1, 0xf6, 0x3c, 0xe0, 0xff, 0xd3, 0x3f,
  0x80, 0xb0, 0x76, 0xbd, 0x38, 0xfb, 0x6e, 0x3f, 0x80, 0x04, 0xb9, 0xbd,
  0x80, 0x04, 0xb9, 0xbd, 0x36, 0x09, 0x9e, 0xbf, 0x80, 0x99, 0x29, 0x3f,
  0x80, 0xb0, 0x76, 0xbd, 0x80, 0x99, 0x29, 0x3f, 0x98, 0x6f, 0xc8, 0xbe,
  0x60, 0x2e, 0x1a, 0xbe, 0xa0, 0x04, 0x39, 0x3e, 0xa8, 0x45, 0xe7, 0xbe,
  0xc0, 0xb0, 0xf6, 0xbd, 0x00, 0xb1, 0xf6, 0x3c, 0x70, 0x2e, 0x9a, 0x3e,
  0xc0, 0xb0, 0xf6, 0xbd, 0xa8, 0x45, 0xe7, 0xbe, 0x00, 0xb1, 0x76, 0x3d,
  0xa0, 0x6f, 0xc8, 0x3e, 0xc0, 0xb0, 0x76, 0xbe, 0x68, 0xc3, 0x0a, 0xbf,
  0x80, 0x04, 0x39, 0xbe, 0x80, 0xb0, 0x76, 0xbd, 0x00, 0xb1, 0xf6, 0xbc,
  0x80, 0xb0, 0x76, 0xbd, 0x80, 0x2e, 0x1a, 0x3e, 0x00, 0x00, 0x00, 0x00,
  0x00, 0x00, 0x00, 0x00, 0x80, 0x04, 0xb9, 0x3d, 0x00, 0xb1, 0x76, 0x3d,
  0x00, 0x00, 0x00, 0x00, 0x00, 0xb1, 0x76, 0x3d, 0xc0, 0xb0, 0xf6, 0x3d,
  0xc0, 0xb0, 0xf6, 0x3d, 0x00, 0xb1, 0x76, 0x3d, 0x00, 0xb1, 0xf6, 0xbc,
  0x00, 0xb1, 0x76, 0x3d, 0x80, 0x04, 0xb9, 0xbd, 0x80, 0xb0, 0x76, 0xbd,
  0x00, 0xb1, 0xf6, 0x3c, 0x00, 0x00, 0x00, 0x00, 0x80, 0x04, 0xb9, 0x3d,
  0x00, 0xb1, 0xf6, 0xbc, 0x80, 0xb0, 0x76, 0xbd, 0xc0, 0xb0, 0xf6, 0x3d,
  0xc0, 0xb0, 0xf6, 0x3d, 0x00, 0x00, 0x00, 0x00, 0x00, 0xb1, 0xf6, 0x3c,
  0x80, 0x2e, 0x1a, 0x3e, 0x00, 0xb1, 0xf6, 0xbc, 0xc0, 0xb0, 0xf6, 0x3d,
  0x80, 0x04, 0xb9, 0x3d, 0x80, 0xb0, 0x76, 0xbd, 0x00, 0x00, 0x00, 0x00,
  0x00, 0xb1, 0xf6, 0xbc, 0x78, 0x2e, 0x1a, 0x3f, 0x00, 0x00, 0x00, 0x00,
  0x00, 0x00, 0x00, 0x00, 0x00, 0xb1, 0xf6, 0x3c, 0x00, 0xb1, 0xf6, 0x3c,
  0x00, 0x00, 0x00, 0x00, 0x00, 0x00, 0x00, 0x00, 0xc0, 0xb0, 0xf6, 0x3d,
  0x8c, 0x04, 0x39, 0xbf, 0x00, 0x00, 0x00, 0x00, 0x80, 0x04, 0x39, 0xbe,
  0x00, 0xb1, 0xf6, 0x3c, 0x00, 0xb1, 0xf6, 0x3c, 0xee, 0x78, 0x92, 0xbf,
  0x80, 0xb0, 0x76, 0xbd, 0x00, 0xb1, 0xf6, 0xbc, 0x80, 0xb0, 0x76, 0xbd,
  0x70, 0x2e, 0x9a, 0xbe, 0x00, 0xb1, 0xf6, 0xbc, 0x00, 0xb1, 0xf6, 0x3c,
  0x00, 0xb1, 0x76, 0x3d, 0x00, 0x00, 0x00, 0x00, 0x00, 0x00, 0x00, 0x00,
  0x90, 0x04, 0xb9, 0x3e, 0x42, 0x74, 0xad, 0xbf, 0x80, 0x2e, 0x1a, 0x3e,
  0x00, 0x00, 0x00, 0x00, 0xb8, 0xb0, 0xf6, 0xbe, 0x60, 0x2e, 0x1a, 0xbe,
  0x00, 0xb1, 0xf6, 0xbc, 0x80, 0xb0, 0x76, 0xbd, 0x00, 0x00, 0x00, 0x00,
  0x00, 0x00, 0x00, 0x00, 0x00, 0xb1, 0xf6, 0x3c, 0x80, 0x04, 0xb9, 0x3d,
  0x80, 0x04, 0xb9, 0x3d, 0x00, 0xb1, 0xf6, 0x3c, 0x00, 0xb1, 0xf6, 0xbc,
  0x80, 0x04, 0xb9, 0xbd, 0x80, 0xb0, 0x76, 0xbd, 0x80, 0x04, 0xb9, 0x3d,
  0xc0, 0xb0, 0xf6, 0x3d, 0x00, 0xb1, 0xf6, 0x3c, 0x80, 0x2e, 0x1a, 0x3e,
  0x00, 0xb1, 0xf6, 0xbc, 0x80, 0x04, 0xb9, 0x3d, 0x00, 0x00, 0x00, 0x00,
  0x00, 0xb1, 0xf6, 0xbc, 0x80, 0x04, 0xb9, 0x3d, 0x00, 0x00, 0x00, 0x00,
  0x80, 0x04, 0xb9, 0xbd, 0x00, 0xb1, 0xf6, 0x3c, 0x80, 0x04, 0xb9, 0x3d,
  0x00, 0xb1, 0xf6, 0xbc, 0x00, 0xb1, 0xf6, 0x3c, 0x80, 0x04, 0xb9, 0x3d,
  0x00, 0xb1, 0xf6, 0xbc, 0x80, 0x04, 0xb9, 0x3d, 0x80, 0xb0, 0x76, 0xbd,
  0xc0, 0xb0, 0xf6, 0xbd, 0x00, 0xb1, 0x76, 0x3d, 0x00, 0xb1, 0xf6, 0x3c,
  0x00, 0xb1, 0xf6, 0xbc, 0x00, 0x00, 0x00, 0x00, 0x00, 0xb1, 0xf6, 0x3c,
  0x00, 0xb1, 0xf6, 0x3c, 0x00, 0xb1, 0xf6, 0x3c, 0x00, 0x00, 0x00, 0x00,
  0x00, 0xb1, 0xf6, 0xbc, 0x00, 0x00, 0x00, 0x00, 0x00, 0xb1, 0xf6, 0xbc,
  0x00, 0x00, 0x00, 0x00, 0x00, 0x00, 0x00, 0x00, 0x00, 0xb1, 0xf6, 0x3c,
  0x80, 0xb0, 0x76, 0xbd, 0x00, 0x00, 0x00, 0x00, 0x70, 0x2e, 0x9a, 0x3e,
  0x00, 0x00, 0x00, 0x00, 0x80, 0x2e, 0x1a, 0x3e, 0x00, 0xb1, 0xf6, 0xbc,
  0x00, 0xb1, 0x76, 0x3d, 0x00, 0x00, 0x00, 0x00, 0x00, 0xb1, 0xf6, 0xbc,
  0x80, 0xb0, 0x76, 0xbd, 0x00, 0xb1, 0xf6, 0xbc, 0x00, 0xb1, 0xf6, 0xbc,
  0x00, 0x00, 0x00, 0x00, 0x00, 0xb1, 0xf6, 0x3c, 0x00, 0x00, 0x00, 0x00,
  0x00, 0xb1, 0xf6, 0xbc, 0x00, 0x00, 0x00, 0x00, 0x00, 0x00, 0x00, 0x00,
  0x00, 0x00, 0x00, 0x00, 0x8c, 0x04, 0x39, 0xbf, 0x00, 0xb1, 0xf6, 0x3c,
  0x80, 0x04, 0xb9, 0x3d, 0x80, 0x04, 0xb9, 0xbd, 0x00, 0xb1, 0xf6, 0xbc,
  0x00, 0xb1, 0x76, 0x3d, 0xc0, 0xb0, 0xf6, 0x3d, 0x00, 0x00, 0x00, 0x00,
  0xc0, 0xb0, 0xf6, 0x3d, 0x00, 0x00, 0x00, 0x00, 0x00, 0xb1, 0x76, 0x3d,
  0x00, 0xb1, 0xf6, 0xbc, 0x00, 0xb1, 0xf6, 0x3c, 0x00, 0x00, 0x00, 0x00,
  0x00, 0xb1, 0x76, 0x3d, 0x00, 0xb1, 0xf6, 0x3c, 0x00, 0xb1, 0xf6, 0xbc,
  0x00, 0xb1, 0xf6, 0x3c, 0x00, 0xb1, 0xf6, 0xbc, 0x00, 0x00, 0x00, 0x00,
  0x00, 0x00, 0x00, 0x00, 0x00, 0x00, 0x00, 0x00, 0x00, 0xb1, 0xf6, 0x3c,
  0x00, 0xb1, 0xf6, 0xbc, 0x00, 0x00, 0x00, 0x00, 0x00, 0xb1, 0x76, 0x3d,
  0x00, 0xb1, 0xf6, 0x3c, 0x80, 0xb0, 0x76, 0xbd, 0x00, 0xb1, 0xf6, 0x3c,
  0x00, 0x00, 0x00, 0x00, 0x80, 0x04, 0xb9, 0x3d, 0x00, 0xb1, 0xf6, 0xbc,
  0xc0, 0xb0, 0xf6, 0x3d, 0x00, 0x00, 0x00, 0x00, 0x00, 0xb1, 0xf6, 0x3c,
  0x80, 0x04, 0x39, 0xbe, 0x00, 0xb1, 0xf6, 0x3c, 0x00, 0xb1, 0xf6, 0x3c,
  0x80, 0x04, 0xb9, 0x3d, 0x00, 0x00, 0x00, 0x00, 0x00, 0x00, 0x00, 0x00,
  0x00, 0x00, 0x00, 0x00, 0x00, 0xb1, 0xf6, 0xbc, 0xa0, 0xda, 0xd7, 0x3e,
  0x00, 0x00, 0x00, 0x00, 0x00, 0xb1, 0xf6, 0xbc, 0x00, 0x00, 0x00, 0x00,
  0x74, 0xa7, 0x42, 0x40, 0x80, 0x04, 0x39, 0xbe, 0x60, 0x2e, 0x1a, 0xbe,
  0x00, 0x00, 0x00, 0x00, 0x00, 0x00, 0x00, 0x00, 0x00, 0xb1, 0xf6, 0xbc,
  0x00, 0xb1, 0x76, 0x3d, 0x00, 0xb1, 0xf6, 0xbc, 0x00, 0xb1, 0xf6, 0x3c,
  0x00, 0xb1, 0xf6, 0xbc, 0x00, 0xb1, 0xf6, 0xbc, 0x00, 0xb1, 0xf6, 0xbc,
  0x00, 0x00, 0x00, 0x00, 0x00, 0xb1, 0xf6, 0xbc, 0x00, 0xb1, 0xf6, 0xbc,
  0x00, 0xb1, 0xf6, 0xbc, 0x00, 0x00, 0x00, 0x00, 0x00, 0x00, 0x00, 0x00,
  0x00, 0xb1, 0xf6, 0x3c, 0x00, 0x00, 0x00, 0x00, 0x00, 0xb1, 0xf6, 0xbc,
  0x00, 0xb1, 0xf6, 0xbc, 0x80, 0x04, 0xb9, 0x3d, 0x00, 0xb1, 0xf6, 0xbc,
  0x00, 0xb1, 0x76, 0x3d, 0x00, 0xb1, 0xf6, 0x3c, 0x00, 0xb1, 0xf6, 0x3c,
  0x80, 0x04, 0xb9, 0xbd, 0x00, 0xb1, 0xf6, 0x3c, 0x00, 0xb1, 0xf6, 0xbc,
  0x80, 0x04, 0xb9, 0x3d, 0x80, 0xb0, 0x76, 0xbd, 0x00, 0x00, 0x00, 0x00,
  0x80, 0x2e, 0x1a, 0x3e, 0x00, 0xb1, 0xf6, 0xbc, 0x80, 0xb0, 0x76, 0xbd,
  0x80, 0xb0, 0x76, 0xbd, 0x00, 0xb1, 0xf6, 0x3c, 0x80, 0x04, 0xb9, 0x3d,
  0x80, 0x04, 0xb9, 0x3d, 0x80, 0xb0, 0x76, 0xbd, 0x00, 0xb1, 0xf6, 0x3c,
  0x00, 0xb1, 0xf6, 0x3c, 0x00, 0xb1, 0xf6, 0xbc, 0x00, 0xb1, 0xf6, 0x3c,
  0x80, 0x04, 0xb9, 0xbd, 0xc0, 0xb0, 0xf6, 0x3d, 0x80, 0x04, 0xb9, 0x3d,
  0x00, 0xb1, 0x76, 0x3d, 0x00, 0xb1, 0x76, 0x3d, 0x00, 0xb1, 0x76, 0x3d,
  0x00, 0x00, 0x00, 0x00, 0x60, 0x2e, 0x1a, 0xbe, 0x00, 0x00, 0x00, 0x00,
  0x00, 0x00, 0x00, 0x00, 0x00, 0x00, 0x00, 0x00, 0x00, 0x00, 0x00, 0x00,
  0x00, 0x00, 0x00, 0x00, 0x00, 0x00, 0x00, 0x00, 0x80, 0x04, 0xb9, 0xbd,
  0x80, 0x99, 0x29, 0xbf, 0x00, 0xb1, 0xf6, 0xbc, 0x00, 0xb1, 0x76, 0x3d,
  0x00, 0xb1, 0xf6, 0xbc, 0x80, 0x2e, 0x1a, 0x3e, 0x80, 0x04, 0x39, 0xbe,
  0x00, 0x00, 0x00, 0x00, 0x00, 0x00, 0x00, 0x00, 0x00, 0xb1, 0xf6, 0x3c,
  0xc0, 0xb0, 0xf6, 0x3d, 0x00, 0x00, 0x00, 0x00, 0x00, 0xb1, 0xf6, 0xbc,
  0x00, 0xb1, 0xf6, 0x3c, 0x00, 0x00, 0x00, 0x00, 0x00, 0x00, 0x00, 0x00,
  0x00, 0xb1, 0xf6, 0xbc, 0x90, 0x04, 0xb9, 0x3e, 0x00, 0x00, 0x00, 0x00,
  0x00, 0x00, 0x00, 0x00, 0x00, 0xb1, 0xf6, 0xbc, 0x00, 0xb1, 0xf6, 0x3c,
  0x00, 0xb1, 0xf6, 0xbc, 0x00, 0xb1, 0xf6, 0xbc, 0x80, 0xb0, 0x76, 0xbd,
  0x80, 0x04, 0xb9, 0x3d, 0x80, 0x2e, 0x1a, 0x3e, 0x00, 0xb1, 0xf6, 0x3c,
  0x00, 0xb1, 0x76, 0x3d, 0x00, 0xb1, 0xf6, 0x3c, 0x80, 0x04, 0xb9, 0x3d,
  0x80, 0x04, 0xb9, 0xbd, 0xc0, 0xb0, 0xf6, 0x3d, 0x80, 0xb0, 0x76, 0xbd,
  0x80, 0x2e, 0x1a, 0x3e, 0x80, 0x2e, 0x1a, 0x3e, 0x00, 0x00, 0x00, 0x00,
  0x80, 0x04, 0xb9, 0x3d, 0x00, 0x00, 0x00, 0x00, 0x00, 0xb1, 0xf6, 0x3c,
  0x80, 0x04, 0xb9, 0xbd, 0x00, 0xb1, 0xf6, 0x3c, 0x00, 0x00, 0x00, 0x00,
  0x00, 0xb1, 0x76, 0x3d, 0x00, 0xb1, 0xf6, 0xbc, 0x00, 0xb1, 0x76, 0x3d,
  0x60, 0x2e, 0x1a, 0xbe, 0x00, 0xb1, 0x76, 0x3d, 0x00, 0xb1, 0x76, 0x3d,
  0x80, 0xb0, 0x76, 0xbd, 0x00, 0xb1, 0x76, 0x3d, 0x00, 0xb1, 0xf6, 0x3c,
  0x80, 0x04, 0x39, 0xbe, 0x00, 0xb1, 0xf6, 0x3c, 0x80, 0x04, 0xb9, 0xbd,
  0x80, 0x04, 0xb9, 0xbd, 0x80, 0x04, 0xb9, 0xbd, 0x00, 0x00, 0x00, 0x00,
  0x80, 0x04, 0xb9, 0xbd, 0x00, 0xb1, 0xf6, 0xbc, 0x80, 0x2e, 0x1a, 0x3e,
  0x80, 0xb0, 0x76, 0xbd, 0x00, 0xb1, 0xf6, 0xbc, 0x60, 0x2e, 0x1a, 0xbe,
  0xc0, 0xb0, 0xf6, 0xbd, 0x00, 0x00, 0x00, 0x00, 0x8c, 0x04, 0x39, 0xbf,
  0x00, 0xb1, 0xf6, 0xbc, 0xa0, 0x6f, 0xc8, 0x3e, 0x00, 0x00, 0x00, 0x00,
  0x00, 0xb1, 0xf6, 0x3c, 0xf8, 0xe3, 0x21, 0xbf, 0x00, 0x00, 0x00, 0x00,
  0x00, 0xb1, 0xf6, 0xbc, 0x00, 0x00, 0x00, 0x00, 0x80, 0x04, 0x39, 0xbe,
  0x00, 0xb1, 0xf6, 0xbc, 0x00, 0x00, 0x00, 0x00, 0x80, 0xb0, 0x76, 0xbd,
  0x80, 0xb0, 0x76, 0xbd, 0x00, 0x00, 0x00, 0x00, 0x00, 0xb1, 0xf6, 0xbc,
  0x00, 0xb1, 0xf6, 0x3c, 0x00, 0xb1, 0xf6, 0xbc, 0x00, 0xb1, 0xf6, 0x3c,
  0x00, 0xb1, 0xf6, 0xbc, 0x80, 0x04, 0xb9, 0x3d, 0x00, 0xb1, 0xf6, 0x3c,
  0x80, 0xb0, 0x76, 0xbd, 0xc0, 0xb0, 0xf6, 0x3d, 0xc0, 0xb0, 0xf6, 0xbd,
  0xa0, 0x04, 0x39, 0x3e, 0x00, 0x00, 0x00, 0x00, 0x80, 0x2e, 0x1a, 0x3e,
  0x00, 0xb1, 0xf6, 0x3c, 0x80, 0x2e, 0x1a, 0x3e, 0xa0, 0x04, 0x39, 0x3e,
  0x60, 0x2e, 0x1a, 0xbe, 0x00, 0xb1, 0xf6, 0x3c, 0x80, 0x04, 0xb9, 0xbd,
  0x00, 0xb1, 0xf6, 0x3c, 0xa0, 0xda, 0x57, 0x3e, 0x80, 0x04, 0xb9, 0x3d,
  0x80, 0x04, 0x39, 0xbe, 0x80, 0xb0, 0x76, 0xbd, 0xc0, 0xb0, 0x76, 0xbe,
  0x80, 0x04, 0x39, 0xbe, 0x00, 0xb1, 0xf6, 0xbc, 0xc0, 0xb0, 0xf6, 0x3d,
  0x00, 0x00, 0x00, 0x00, 0x60, 0x2e, 0x1a, 0xbe, 0x00, 0x00, 0x00, 0x00,
  0xc0, 0xb0, 0x76, 0x3e, 0x00, 0xb1, 0x76, 0x3d, 0x80, 0x04, 0xb9, 0x3d,
  0xa0, 0x04, 0x39, 0x3e, 0xc0, 0xb0, 0xf6, 0x3d, 0xc0, 0xb0, 0xf6, 0x3d,
  0x00, 0xb1, 0xf6, 0xbc, 0x00, 0xb1, 0xf6, 0xbc, 0x70, 0xc3, 0x8a, 0x3e,
  0x00, 0xb1, 0xf6, 0xbc, 0x00, 0x00, 0x00, 0x00, 0xf8, 0xe3, 0x21, 0x3f,
  0x80, 0x04, 0xb9, 0x3d, 0x80, 0xb0, 0x76, 0xbd, 0x00, 0x00, 0x00, 0x00,
  0x60, 0x2e, 0x1a, 0xbe, 0x38, 0x09, 0x1e, 0x40, 0x10, 0xba, 0x40, 0x3f,
  0x08, 0x4f, 0x31, 0x3f, 0x80, 0xb0, 0x76, 0xbd, 0x60, 0x2e, 0x1a, 0xbe,
  0x00, 0x00, 0x00, 0x00, 0xa0, 0x04, 0x39, 0x3e, 0x68, 0xc3, 0x0a, 0x3f,
  0xa0, 0xda, 0xd7, 0x3e, 0x70, 0x2e, 0x9a, 0x3e, 0x80, 0x04, 0xb9, 0x3d,
  0x98, 0x6f, 0xc8, 0xbe, 0x80, 0x99, 0xa9, 0xbe, 0xa0, 0xda, 0x57, 0xbe,
  0xe8, 0x0d, 0x03, 0x3f, 0xa0, 0xda, 0x57, 0xbe, 0x80, 0xb0, 0x76, 0xbd,
  0x00, 0x00, 0x00, 0x00, 0xa0, 0xda, 0x57, 0x3e, 0x40, 0x66, 0x7e, 0x3f,
  0x80, 0xb0, 0x76, 0xbd, 0x94, 0x6f, 0x48, 0xbf, 0x00, 0x00, 0x00, 0x00,
  0x60, 0x2e, 0x1a, 0xbe, 0x00, 0x00, 0x00, 0x00, 0xc0, 0xb0, 0xf6, 0xbd,
  0xc0, 0xb0, 0xf6, 0xbd, 0x00, 0xb1, 0x76, 0x3d, 0xc0, 0xb0, 0xf6, 0x3d,
  0x80, 0x2e, 0x1a, 0x3e, 0x00, 0xb1, 0xf6, 0x3c, 0xa0, 0x04, 0x39, 0x3e,
  0x80, 0x04, 0xb9, 0xbd, 0x80, 0x04, 0xb9, 0xbd, 0x00, 0xb1, 0x76, 0x3d,
  0x80, 0xb0, 0x76, 0xbd, 0x00, 0x00, 0x00, 0x00, 0x00, 0xb1, 0xf6, 0xbc,
  0x80, 0x04, 0xb9, 0x3d, 0xc0, 0xb0, 0xf6, 0xbd, 0xc0, 0xb0, 0xf6, 0xbd,
  0x00, 0xb1, 0xf6, 0xbc, 0x80, 0xb0, 0x76, 0xbd, 0xc0, 0xb0, 0x76, 0x3e,
  0x00, 0xb1, 0x76, 0x3d, 0x80, 0x04, 0xb9, 0xbd, 0xa0, 0x04, 0x39, 0x3e,
  0x00, 0xb1, 0x76, 0x3d, 0x00, 0xb1, 0xf6, 0x3c, 0xc0, 0xb0, 0xf6, 0x3d,
  0x00, 0xb1, 0x76, 0x3d, 0x00, 0x00, 0x00, 0x00, 0x80, 0x2e, 0x1a, 0x3e,
  0xc0, 0xb0, 0xf6, 0x3d, 0xc0, 0xb0, 0xf6, 0xbd, 0x80, 0x04, 0x39, 0xbe,
  0xa0, 0xda, 0x57, 0x3e, 0x00, 0xb1, 0x76, 0x3d, 0x00, 0x00, 0x00, 0x00,
  0x00, 0x00, 0x00, 0x00, 0x00, 0xb1, 0xf6, 0xbc, 0x00, 0x00, 0x00, 0x00,
  0x00, 0xb1, 0xf6, 0xbc, 0x00, 0xb1, 0xf6, 0x3c, 0x80, 0x99, 0xa9, 0x3f,
  0xc0, 0xb0, 0xf6, 0x3d, 0x00, 0xb1, 0xf6, 0x3c, 0x00, 0x00, 0x00, 0x00,
  0x00, 0xb1, 0xf6, 0x3c, 0x00, 0x00, 0x00, 0x00, 0xc0, 0xb0, 0x76, 0xbe,
  0x00, 0x00, 0x00, 0x00, 0xe8, 0x0d, 0x03, 0x3f, 0x00, 0xb1, 0xf6, 0xbc,
  0x80, 0x04, 0xb9, 0x3d, 0x00, 0xb1, 0xf6, 0xbc, 0x80, 0xb0, 0x76, 0xbd,
  0x00, 0xb1, 0x76, 0x3d, 0xc0, 0xb0, 0x76, 0xbe, 0x00, 0xb1, 0xf6, 0x3c,
  0xc0, 0xb0, 0xf6, 0xbd, 0x80, 0xb0, 0x76, 0xbd, 0xa0, 0xda, 0x57, 0x3e,
  0x80, 0x04, 0xb9, 0xbd, 0x60, 0x2e, 0x1a, 0xbe, 0x74, 0x2e, 0x9a, 0xbf,
  0x00, 0xb1, 0xf6, 0xbc, 0x00, 0xb1, 0xf6, 0x3c, 0x00, 0xb1, 0xf6, 0xbc,
  0x00, 0xb1, 0x76, 0x3d, 0x80, 0x04, 0xb9, 0x3d, 0x70, 0x2e, 0x9a, 0x3e,
  0x80, 0xb0, 0x76, 0xbd, 0xc0, 0xb0, 0xf6, 0x3d, 0xa0, 0xda, 0x57, 0x3e,
  0x80, 0xb0, 0x76, 0xbd, 0x00, 0xb1, 0x76, 0x3d, 0x00, 0xb1, 0xf6, 0xbc,
  0x00, 0xb1, 0xf6, 0x3c, 0x80, 0x04, 0xb9, 0x3d, 0xc0, 0xb0, 0xf6, 0x3d,
  0x80, 0x04, 0x39, 0xbe, 0x00, 0xb1, 0xf6, 0x3c, 0x80, 0x04, 0xb9, 0x3d,
  0xc0, 0xb0, 0xf6, 0xbd, 0x00, 0x00, 0x00, 0x00, 0x00, 0x00, 0x00, 0x00,
  0x00, 0xb1, 0x76, 0x3d, 0x80, 0xb0, 0x76, 0xbd, 0x80, 0x2e, 0x1a, 0x3e,
  0x00, 0xb1, 0xf6, 0xbc, 0xc0, 0xb0, 0xf6, 0x3d, 0x00, 0x00, 0x00, 0x00,
  0x80, 0xb0, 0x76, 0xbd, 0x80, 0xb0, 0x76, 0xbd, 0x00, 0x00, 0x00, 0x00,
  0xc0, 0xb0, 0xf6, 0xbd, 0x00, 0xb1, 0xf6, 0x3c, 0xa0, 0x04, 0x39, 0x3e,
  0xc0, 0xb0, 0xf6, 0x3d, 0x00, 0x00, 0x00, 0x00, 0x00, 0xb1, 0xf6, 0x3c,
  0x00, 0x00, 0x00, 0x00, 0x00, 0xb1, 0x76, 0x3d, 0x00, 0x00, 0x00, 0x00,
  0xa0, 0xda, 0x57, 0xbf, 0x7c, 0x8b, 0xfa, 0xbf, 0x28, 0x90, 0x5f, 0x3f,
  0x00, 0xb1, 0xf6, 0x3c, 0x00, 0x00, 0x00, 0x00, 0x00, 0xb1, 0xf6, 0x3c,
  0x00, 0xb1, 0xf6, 0xbc, 0x00, 0x00, 0x00, 0x00, 0x00, 0xb1, 0x76, 0x3d,
  0x00, 0x00, 0x00, 0x00, 0xa4, 0xda, 0x57, 0x40, 0x00, 0xb1, 0xf6, 0xbc,
  0x00, 0xb1, 0xf6, 0xbc, 0x00, 0xb1, 0xf6, 0xbc, 0x00, 0x00, 0x00, 0x00,
  0xc0, 0xb0, 0xf6, 0x3d, 0x00, 0xb1, 0xf6, 0x3c, 0x00, 0x00, 0x00, 0x00,
  0x00, 0xb1, 0xf6, 0x3c, 0x00, 0xb1, 0xf6, 0x3c, 0x00, 0x00, 0x00, 0x00,
  0x80, 0x04, 0xb9, 0xbd, 0x00, 0x00, 0x00, 0x00, 0x00, 0xb1, 0xf6, 0xbc,
  0x00, 0xb1, 0xf6, 0x3c, 0xa0, 0xda, 0x57, 0xbe, 0x80, 0x04, 0xb9, 0x3d,
  0x80, 0xb0, 0x76, 0xbd, 0xc0, 0xb0, 0xf6, 0x3d, 0x88, 0x04, 0xb9, 0xbe,
  0xa0, 0xda, 0x57, 0x3e, 0xa0, 0xda, 0x57, 0x3e, 0x80, 0x2e, 0x1a, 0x3e,
  0x80, 0x2e, 0x1a, 0x3e, 0xa0, 0x04, 0x39, 0x3e, 0x80, 0x04, 0xb9, 0xbd,
  0x80, 0xb0, 0x76, 0xbd, 0x80, 0x2e, 0x1a, 0x3e, 0xc0, 0xb0, 0xf6, 0x3d,
  0xa0, 0x04, 0x39, 0x3e, 0x98, 0x6f, 0xc8, 0xbe, 0xa0, 0xda, 0x57, 0x3e,
  0xc0, 0xb0, 0x76, 0x3e, 0x00, 0xb1, 0xf6, 0xbc, 0x00, 0xb1, 0xf6, 0x3c,
  0xc0, 0xb0, 0xf6, 0xbd, 0x00, 0xb1, 0x76, 0x3d, 0x80, 0x2e, 0x1a, 0x3e,
  0xc0, 0xb0, 0xf6, 0x3d, 0x00, 0xb1, 0xf6, 0x3c, 0xa0, 0xda, 0x57, 0x3e,
  0xc0, 0xb0, 0x76, 0x3e, 0x00, 0xb1, 0x76, 0x3d, 0xa0, 0x04, 0x39, 0x3e,
  0x80, 0xb0, 0x76, 0xbd, 0xa0, 0x04, 0x39, 0x3e, 0x00, 0x00, 0x00, 0x00,
  0xa0, 0xda, 0x57, 0x3e, 0xa0, 0x04, 0x39, 0x3e, 0x70, 0xc3, 0x8a, 0x3e,
  0x00, 0xb1, 0x76, 0x3d, 0x00, 0xb1, 0x76, 0x3d, 0x70, 0x2e, 0x9a, 0xbe,
  0x2a, 0x9e, 0x8e, 0xbf, 0x1c, 0x25, 0x50, 0xbf, 0x80, 0x04, 0xb9, 0xbd,
  0x80, 0x99, 0xa9, 0x3e, 0xc0, 0xb0, 0xf6, 0x3d, 0xb4, 0x53, 0x96, 0x3f,
  0x00, 0xb1, 0xf6, 0xbc, 0x10, 0xba, 0x40, 0x3f, 0x80, 0x04, 0xb9, 0xbd,
  0x00, 0x00, 0x00, 0x00, 0x00, 0xb1, 0x76, 0x3d, 0xfc, 0xe3, 0xa1, 0x3f,
  0x80, 0x2e, 0x1a, 0x3e, 0xa0, 0x6f, 0xc8, 0x3e, 0x80, 0x04, 0xb9, 0x3d,
  0x80, 0x99, 0xa9, 0xbe, 0x90, 0x04, 0xb9, 0x3e, 0xa0, 0xda, 0xd7, 0xbe,
  0x80, 0x2e, 0x1a, 0x3e, 0x00, 0x00, 0x00, 0x00, 0xc0, 0xb0, 0xf6, 0x3d,
  0x80, 0xb0, 0x76, 0xbd, 0xb8, 0xb0, 0xf6, 0xbe, 0x00, 0xb1, 0x76, 0x3d,
  0x00, 0xb1, 0xf6, 0xbc, 0xc0, 0xb0, 0xf6, 0xbd, 0xec, 0x78, 0x12, 0xbf,
  0x94, 0x6f, 0x48, 0xbf, 0x00, 0xb1, 0x76, 0x3d, 0x80, 0x04, 0xb9, 0xbd,
  0x80, 0x04, 0xb9, 0xbd, 0x00, 0xb1, 0xf6, 0xbc, 0xc0, 0xb0, 0xf6, 0x3d,
  0x80, 0x04, 0xb9, 0x3d, 0x80, 0x2e, 0x1a, 0x3e, 0x00, 0xb1, 0xf6, 0x3c,
  0x00, 0xb1, 0xf6, 0x3c, 0x60, 0x2e, 0x1a, 0xbe, 0x00, 0xb1, 0xf6, 0x3c,
  0x80, 0x2e, 0x1a, 0x3e, 0xc0, 0xb0, 0xf6, 0x3d, 0x00, 0xb1, 0xf6, 0xbc,
  0x80, 0x04, 0xb9, 0x3d, 0x00, 0xb1, 0xf6, 0xbc, 0xc0, 0xb0, 0xf6, 0xbd,
  0xc0, 0xb0, 0xf6, 0x3d, 0x00, 0xb1, 0x76, 0x3d, 0x00, 0x00, 0x00, 0x00,
  0x80, 0x04, 0xb9, 0x3d, 0xc0, 0xb0, 0xf6, 0xbd, 0xc0, 0xb0, 0x76, 0x3e,
  0x00, 0xb1, 0xf6, 0x3c, 0x00, 0xb1, 0xf6, 0xbc, 0x80, 0xb0, 0x76, 0xbd,
  0x80, 0x2e, 0x1a, 0x3e, 0x00, 0xb1, 0x76, 0x3d, 0x80, 0x04, 0xb9, 0x3d,
  0x00, 0xb1, 0x76, 0x3d, 0x00, 0x00, 0x00, 0x00, 0x00, 0x00, 0x00, 0x00,
  0x00, 0x00, 0x00, 0x00, 0x90, 0x04, 0x39, 0x3f, 0x00, 0xb1, 0xf6, 0xbc,
  0x00, 0xb1, 0x76, 0x3d, 0x80, 0x2e, 0x1a, 0x3e, 0x00, 0xb1, 0xf6, 0x3c,
  0x00, 0xb1, 0xf6, 0xbc, 0x00, 0x00, 0x00, 0x00, 0x80, 0x2e, 0x1a, 0x3e,
  0x60, 0xc3, 0x8a, 0xbe, 0x00, 0xb1, 0xf6, 0xbc, 0xa8, 0x45, 0xe7, 0xbe,
  0x00, 0xb1, 0xf6, 0x3c, 0x00, 0x00, 0x00, 0x00, 0xa2, 0xda, 0xd7, 0xbf,
  0x80, 0xb0, 0x76, 0xbd, 0x00, 0xb1, 0x76, 0x3d, 0x80, 0x04, 0xb9, 0xbd,
  0x10, 0xba, 0x40, 0xbf, 0x00, 0xb1, 0xf6, 0xbc, 0x00, 0xb1, 0xf6, 0x3c,
  0x00, 0xb1, 0xf6, 0x3c, 0x80, 0xb0, 0x76, 0xbd, 0x00, 0x00, 0x00, 0x00,
  0x68, 0xc3, 0x0a, 0x3f, 0x20, 0x25, 0x50, 0x3f, 0xc0, 0xb0, 0xf6, 0x3d,
  0x00, 0x00, 0x00, 0x00, 0x60, 0x2e, 0x1a, 0xbe, 0xc0, 0xb0, 0x76, 0xbe,
  0x80, 0xb0, 0x76, 0xbd, 0xa0, 0xda, 0x57, 0x3e, 0x00, 0xb1, 0x76, 0x3d,
  0x00, 0x00, 0x00, 0x00, 0x00, 0xb1, 0xf6, 0x3c, 0x00, 0x00, 0x00, 0x00,
  0x00, 0x00, 0x00, 0x00, 0x00, 0x00, 0x00, 0x00, 0x80, 0xb0, 0x76, 0xbd,
  0x80, 0x04, 0xb9, 0xbd, 0x80, 0x04, 0xb9, 0x3d, 0x00, 0xb1, 0xf6, 0xbc,
  0x00, 0xb1, 0xf6, 0xbc, 0x00, 0xb1, 0xf6, 0xbc, 0x80, 0xb0, 0x76, 0xbd,
  0x00, 0x00, 0x00, 0x00, 0x00, 0xb1, 0xf6, 0x3c, 0x00, 0xb1, 0x76, 0x3d,
  0x00, 0xb1, 0xf6, 0xbc, 0xc0, 0xb0, 0xf6, 0x3d, 0x00, 0xb1, 0xf6, 0x3c,
  0x80, 0x2e, 0x1a, 0x3e, 0x00, 0xb1, 0x76, 0x3d, 0x00, 0xb1, 0xf6, 0xbc,
  0x00, 0x00, 0x00, 0x00, 0x80, 0x2e, 0x1a, 0x3e, 0x00, 0xb1, 0xf6, 0xbc,
  0x80, 0x04, 0xb9, 0xbd, 0x00, 0xb1, 0x76, 0x3d, 0xa0, 0x04, 0x39, 0x3e,
  0x80, 0x04, 0xb9, 0xbd, 0x00, 0xb1, 0xf6, 0xbc, 0x00, 0xb1, 0xf6, 0xbc,
  0x00, 0xb1, 0xf6, 0x3c, 0x00, 0x00, 0x00, 0x00, 0x00, 0x00, 0x00, 0x00,
  0x60, 0x2e, 0x1a, 0xbe, 0x00, 0x00, 0x00, 0x00, 0x00, 0x00, 0x00, 0x00,
  0x00, 0x00, 0x00, 0x00, 0x00, 0xb1, 0xf6, 0x3c, 0x00, 0xb1, 0xf6, 0x3c,
  0x00, 0xb1, 0xf6, 0x3c, 0x00, 0x00, 0x00, 0x00, 0x00, 0xb1, 0xf6, 0x3c,
  0x00, 0xb1, 0xf6, 0xbc, 0x00, 0x00, 0x00, 0x00, 0xa0, 0x04, 0x39, 0x3e,
  0x00, 0xb1, 0xf6, 0xbc, 0x80, 0x04, 0xb9, 0x3d, 0x00, 0x00, 0x00, 0x00,
  0x00, 0xb1, 0x76, 0x3d, 0x00, 0x00, 0x00, 0x00, 0x00, 0xb1, 0xf6, 0xbc,
  0x00, 0x00, 0x00, 0x00, 0x00, 0x00, 0x00, 0x00, 0x00, 0xb1, 0xf6, 0xbc,
  0x00, 0x00, 0x00, 0x00, 0x00, 0x00, 0x00, 0x00, 0x00, 0x00, 0x00, 0x00,
  0x00, 0x00, 0x00, 0x00, 0x00, 0x00, 0x00, 0x00, 0x00, 0xb1, 0xf6, 0x3c,
  0x00, 0x00, 0x00, 0x00, 0x4e, 0xdf, 0xbc, 0xbf, 0x00, 0x00, 0x00, 0x00,
  0x00, 0x00, 0x00, 0x00, 0x00, 0x00, 0x00, 0x00, 0x80, 0xb0, 0x76, 0xbd,
  0x80, 0xb0, 0x76, 0xbd, 0x00, 0xb1, 0xf6, 0xbc, 0x00, 0xb1, 0xf6, 0xbc,
  0x80, 0x04, 0xb9, 0x3d, 0x00, 0xb1, 0x76, 0x3d, 0x00, 0x00, 0x00, 0x00,
  0x00, 0xb1, 0xf6, 0xbc, 0x80, 0xb0, 0x76, 0xbd, 0xa0, 0x04, 0x39, 0x3e,
  0x00, 0xb1, 0x76, 0x3d, 0x00, 0x00, 0x00, 0x00, 0xc0, 0xb0, 0xf6, 0x3d,
  0x00, 0xb1, 0xf6, 0x3c, 0x00, 0xb1, 0xf6, 0xbc, 0x00, 0xb1, 0xf6, 0xbc,
  0x00, 0xb1, 0xf6, 0xbc, 0x80, 0x04, 0xb9, 0x3d, 0x80, 0xb0, 0x76, 0xbd,
  0x00, 0xb1, 0xf6, 0xbc, 0x80, 0xb0, 0x76, 0xbd, 0x00, 0xb1, 0xf6, 0xbc,
  0x00, 0x00, 0x00, 0x00, 0x00, 0x00, 0x00, 0x00, 0x00, 0xb1, 0xf6, 0x3c,
  0xc0, 0xb0, 0xf6, 0x3d, 0x00, 0xb1, 0x76, 0x3d, 0xc0, 0xb0, 0xf6, 0x3d,
  0x80, 0x2e, 0x1a, 0x3e, 0x00, 0xb1, 0xf6, 0x3c, 0x00, 0x00, 0x00, 0x00,
  0xc0, 0xb0, 0xf6, 0xbd, 0x00, 0x00, 0x00, 0x00, 0x00, 0xb1, 0xf6, 0x3c,
  0x80, 0x04, 0xb9, 0x3d, 0x00, 0x00, 0x00, 0x00, 0x00, 0x00, 0x00, 0x00,
  0x00, 0x00, 0x00, 0x00, 0x00, 0xb1, 0xf6, 0xbc, 0x90, 0x04, 0xb9, 0x3e,
  0x00, 0x00, 0x00, 0x00, 0x00, 0xb1, 0xf6, 0x3c, 0x00, 0xb1, 0xf6, 0x3c,
  0x2c, 0x9e, 0x0e, 0x40, 0x80, 0x04, 0xb9, 0x3d, 0x60, 0x2e, 0x1a, 0xbe,
  0x00, 0x00, 0x00, 0x00, 0x00, 0xb1, 0xf6, 0x3c, 0x00, 0x00, 0x00, 0x00,
  0x00, 0xb1, 0xf6, 0xbc, 0x80, 0x04, 0xb9, 0xbd, 0x00, 0xb1, 0xf6, 0x3c,
  0x00, 0x00, 0x00, 0x00, 0x00, 0x00, 0x00, 0x00, 0x00, 0xb1, 0xf6, 0xbc,
  0x00, 0xb1, 0xf6, 0x3c, 0x00, 0xb1, 0xf6, 0xbc, 0x00, 0xb1, 0xf6, 0xbc,
  0x00, 0x00, 0x00, 0x00, 0x00, 0xb1, 0xf6, 0xbc, 0x00, 0xb1, 0xf6, 0xbc,
  0x00, 0x00, 0x00, 0x00, 0x80, 0x04, 0xb9, 0x3d, 0xc0, 0xb0, 0xf6, 0xbd,
  0x00, 0xb1, 0x76, 0x3d, 0x00, 0xb1, 0xf6, 0xbc, 0x80, 0x04, 0xb9, 0x3d,
  0x60, 0x2e, 0x1a, 0xbe, 0x00, 0xb1, 0xf6, 0x3c, 0x80, 0xb0, 0x76, 0xbd,
  0x00, 0xb1, 0x76, 0x3d, 0x00, 0xb1, 0xf6, 0x3c, 0x00, 0xb1, 0x76, 0x3d,
  0x00, 0xb1, 0xf6, 0x3c, 0x00, 0x00, 0x00, 0x00, 0x00, 0xb1, 0xf6, 0xbc,
  0x00, 0xb1, 0xf6, 0xbc, 0x80, 0xb0, 0x76, 0xbd, 0x00, 0x00, 0x00, 0x00,
  0x80, 0x04, 0xb9, 0x3d, 0x00, 0xb1, 0xf6, 0xbc, 0x00, 0xb1, 0x76, 0x3d,
  0x80, 0x04, 0xb9, 0x3d, 0x80, 0xb0, 0x76, 0xbd, 0x80, 0x04, 0xb9, 0x3d,
  0x00, 0xb1, 0xf6, 0x3c, 0x00, 0xb1, 0xf6, 0x3c, 0x00, 0xb1, 0xf6, 0x3c,
  0x80, 0x2e, 0x1a, 0x3e, 0xc0, 0xb0, 0xf6, 0x3d, 0x00, 0xb1, 0xf6, 0xbc,
  0x00, 0xb1, 0xf6, 0xbc, 0x00, 0x00, 0x00, 0x00, 0x00, 0xb1, 0xf6, 0x3c,
  0x00, 0xb1, 0xf6, 0xbc, 0x80, 0x04, 0x39, 0xbe, 0x00, 0x00, 0x00, 0x00,
  0x00, 0x00, 0x00, 0x00, 0x00, 0xb1, 0xf6, 0xbc, 0x00, 0xb1, 0xf6, 0xbc,
  0x00, 0x00, 0x00, 0x00, 0x00, 0x00, 0x00, 0x00, 0x80, 0xb0, 0x76, 0xbd,
  0x70, 0x2e, 0x9a, 0xbe, 0x00, 0x00, 0x00, 0x00, 0x00, 0xb1, 0xf6, 0x3c,
  0x00, 0x00, 0x00, 0x00, 0x38, 0xfb, 0x6e, 0x3f, 0xa8, 0x45, 0xe7, 0xbe,
  0xc0, 0xb0, 0xf6, 0xbd, 0x00, 0x00, 0x00, 0x00, 0x00, 0xb1, 0xf6, 0x3c,
  0xc0, 0xb0, 0xf6, 0x3d, 0x00, 0x00, 0x00, 0x00, 0x00, 0x00, 0x00, 0x00,
  0x00, 0xb1, 0xf6, 0x3c, 0x00, 0xb1, 0xf6, 0xbc, 0x00, 0x00, 0x00, 0x00,
  0x80, 0xb0, 0x76, 0xbd, 0x60, 0xc3, 0x8a, 0xbe, 0x00, 0xb1, 0xf6, 0x3c,
  0x00, 0x00, 0x00, 0x00, 0x00, 0xb1, 0xf6, 0xbc, 0x00, 0xb1, 0x76, 0x3d,
  0x00, 0xb1, 0xf6, 0x3c, 0x00, 0xb1, 0xf6, 0xbc, 0x00, 0x00, 0x00, 0x00,
  0x00, 0x00, 0x00, 0x00, 0x80, 0x04, 0xb9, 0x3d, 0x80, 0x04, 0xb9, 0x3d,
  0x80, 0x04, 0xb9, 0x3d, 0x80, 0x04, 0xb9, 0x3d, 0xc0, 0xb0, 0xf6, 0x3d,
  0xc0, 0xb0, 0xf6, 0xbd, 0x00, 0xb1, 0xf6, 0xbc, 0x80, 0xb0, 0x76, 0xbd,
  0x80, 0x2e, 0x1a, 0x3e, 0x00, 0xb1, 0x76, 0x3d, 0x80, 0x04, 0xb9, 0xbd,
  0x00, 0xb1, 0xf6, 0x3c, 0x80, 0x2e, 0x1a, 0x3e, 0x00, 0x00, 0x00, 0x00,
  0x80, 0x04, 0xb9, 0xbd, 0xc0, 0xb0, 0xf6, 0x3d, 0x00, 0x00, 0x00, 0x00,
  0x80, 0x04, 0xb9, 0x3d, 0x80, 0x04, 0xb9, 0x3d, 0xc0, 0xb0, 0xf6, 0x3d,
  0xc0, 0xb0, 0xf6, 0xbd, 0x00, 0xb1, 0x76, 0x3d, 0x00, 0xb1, 0xf6, 0x3c,
  0x80, 0x04, 0xb9, 0x3d, 0x00, 0x00, 0x00, 0x00, 0x60, 0x2e, 0x1a, 0xbe,
  0xc0, 0xb0, 0xf6, 0xbd, 0x60, 0x2e, 0x1a, 0xbe, 0xc0, 0xb0, 0xf6, 0xbd,
  0xc0, 0xb0, 0xf6, 0xbd, 0x00, 0x00, 0x00, 0x00, 0x00, 0xb1, 0xf6, 0x3c,
  0xa8, 0x45, 0xe7, 0xbe, 0x70, 0x2e, 0x9a, 0x3e, 0x00, 0xb1, 0xf6, 0x3c,
  0x00, 0xb1, 0xf6, 0x3c, 0xc0, 0xb0, 0xf6, 0xbd, 0x90, 0x04, 0xb9, 0x3e,
  0x80, 0x04, 0xb9, 0xbd, 0x00, 0x00, 0x00, 0x00, 0x88, 0x04, 0xb9, 0xbe,
  0x00, 0xb1, 0xf6, 0x3c, 0xa0, 0xda, 0x57, 0x3e, 0x00, 0x00, 0x00, 0x00,
  0x00, 0x00, 0x00, 0x00, 0xc0, 0xb0, 0x76, 0xbe, 0x00, 0xb1, 0xf6, 0x3c,
  0x00, 0x00, 0x00, 0x00, 0x00, 0x00, 0x00, 0x00, 0x60, 0x2e, 0x1a, 0xbe,
  0x00, 0x00, 0x00, 0x00, 0x00, 0x00, 0x00, 0x00, 0x00, 0xb1, 0xf6, 0xbc,
  0x00, 0x00, 0x00, 0x00, 0x00, 0xb1, 0xf6, 0x3c, 0x00, 0x00, 0x00, 0x00,
  0x00, 0xb1, 0xf6, 0x3c, 0x00, 0xb1, 0xf6, 0x3c, 0x00, 0xb1, 0xf6, 0x3c,
  0x00, 0x00, 0x00, 0x00, 0x00, 0x00, 0x00, 0x00, 0x00, 0x00, 0x00, 0x00,
  0xc0, 0xb0, 0xf6, 0xbd, 0xc0, 0xb0, 0xf6, 0x3d, 0xa0, 0x04, 0x39, 0x3e,
  0x80, 0x2e, 0x1a, 0x3e, 0x00, 0x00, 0x00, 0x00, 0xc0, 0xb0, 0xf6, 0x3d,
  0x00, 0x00, 0x00, 0x00, 0xc0, 0xb0, 0xf6, 0x3d, 0x00, 0xb1, 0xf6, 0x3c,
  0x80, 0x2e, 0x1a, 0x3e, 0x80, 0x2e, 0x1a, 0x3e, 0xc0, 0xb0, 0xf6, 0x3d,
  0x00, 0xb1, 0x76, 0x3d, 0xc0, 0xb0, 0x76, 0x3e, 0x80, 0x04, 0xb9, 0x3d,
  0x80, 0xb0, 0x76, 0xbd, 0x80, 0x04, 0xb9, 0xbd, 0xa0, 0xda, 0x57, 0xbe,
  0xa0, 0xda, 0x57, 0xbe, 0x80, 0x2e, 0x1a, 0x3e, 0xc0, 0xb0, 0xf6, 0x3d,
  0x80, 0x04, 0xb9, 0x3d, 0x98, 0x6f, 0xc8, 0xbe, 0x00, 0xb1, 0xf6, 0xbc,
  0xa0, 0xda, 0x57, 0x3e, 0x00, 0xb1, 0xf6, 0xbc, 0x00, 0xb1, 0xf6, 0x3c,
  0x00, 0xb1, 0x76, 0x3d, 0x80, 0x04, 0xb9, 0xbd, 0x80, 0x04, 0xb9, 0x3d,
  0x60, 0x2e, 0x1a, 0xbe, 0x80, 0x04, 0xb9, 0x3d, 0x00, 0xb1, 0xf6, 0x3c,
  0x00, 0x00, 0x00, 0x00, 0x00, 0xb1, 0xf6, 0x3c, 0xa0, 0xda, 0x57, 0x3e,
  0x70, 0x2e, 0x9a, 0x3e, 0x80, 0x04, 0xb9, 0xbd, 0x00, 0xb1, 0xf6, 0xbc,
  0xa0, 0x6f, 0xc8, 0x3e, 0x44, 0x74, 0x2d, 0x40, 0x80, 0x99, 0x29, 0x3f,
  0x80, 0x99, 0xa9, 0x3e, 0x80, 0xb0, 0x76, 0xbd, 0x00, 0x00, 0x00, 0x00,
  0x00, 0xb1, 0xf6, 0x3c, 0x00, 0x00, 0x00, 0x00, 0x40, 0x66, 0x7e, 0x3f,
  0x80, 0x04, 0xb9, 0xbd, 0x00, 0xb1, 0xf6, 0xbc, 0x00, 0xb1, 0x76, 0x3d,
  0xfa, 0xe3, 0xa1, 0xbf, 0x70, 0x2e, 0x9a, 0xbe, 0x60, 0x2e, 0x1a, 0xbe,
  0x70, 0xc3, 0x8a, 0x3e, 0x70, 0x2e, 0x9a, 0xbe, 0x80, 0xb0, 0x76, 0xbd,
  0x00, 0xb1, 0xf6, 0xbc, 0x00, 0xb1, 0xf6, 0x3c, 0xc0, 0xb0, 0xf6, 0x3e,
  0x00, 0x00, 0x00, 0x00, 0x88, 0x04, 0xb9, 0xbe, 0x80, 0x2e, 0x1a, 0x3e,
  0x00, 0xb1, 0xf6, 0x3c, 0x80, 0xb0, 0x76, 0xbd, 0x00, 0xb1, 0xf6, 0x3c,
  0xc0, 0xb0, 0xf6, 0xbd, 0x00, 0xb1, 0xf6, 0x3c, 0x00, 0xb1, 0x76, 0x3d,
  0xc0, 0xb0, 0x76, 0x3e, 0x00, 0xb1, 0xf6, 0x3c, 0xa0, 0xda, 0x57, 0x3e,
  0xa0, 0xda, 0x57, 0x3e, 0x80, 0x04, 0xb9, 0x3d, 0x00, 0xb1, 0xf6, 0x3c,
  0x80, 0x04, 0xb9, 0xbd, 0x80, 0x04, 0x39, 0xbe, 0x00, 0xb1, 0xf6, 0x3c,
  0x80, 0x04, 0xb9, 0x3d, 0x60, 0x2e, 0x1a, 0xbe, 0x80, 0x04, 0xb9, 0xbd,
  0x00, 0x00, 0x00, 0x00, 0x00, 0x00, 0x00, 0x00, 0x00, 0x00, 0x00, 0x00,
  0x00, 0x00, 0x00, 0x00, 0x80, 0x04, 0xb9, 0xbd, 0xa0, 0x04, 0x39, 0x3e,
  0x80, 0x04, 0xb9, 0x3d, 0x00, 0xb1, 0x76, 0x3d, 0x80, 0x04, 0xb9, 0x3d,
  0x80, 0x2e, 0x1a, 0x3e, 0xc0, 0xb0, 0xf6, 0x3d, 0xc0, 0xb0, 0xf6, 0x3d,
  0xa0, 0xda, 0x57, 0x3e, 0x00, 0xb1, 0xf6, 0x3c, 0xc0, 0xb0, 0xf6, 0xbd,
  0xa0, 0x6f, 0xc8, 0x3e, 0x00, 0xb1, 0xf6, 0x3c, 0x00, 0x00, 0x00, 0x00,
  0x00, 0xb1, 0xf6, 0x3c, 0x80, 0xb0, 0x76, 0xbd, 0x00, 0xb1, 0xf6, 0x3c,
  0x00, 0x00, 0x00, 0x00, 0x00, 0xb1, 0xf6, 0x3c, 0x80, 0x04, 0xb9, 0xbd,
  0x80, 0x04, 0xb9, 0xbd, 0x00, 0xb1, 0xf6, 0x3c, 0xc0, 0xb0, 0x76, 0xbe,
  0xa0, 0x04, 0x39, 0x3e, 0x00, 0x00, 0x00, 0x00, 0x80, 0xb0, 0x76, 0xbd,
  0x00, 0x00, 0x00, 0x00, 0xb0, 0x53, 0x96, 0xbf, 0x80, 0x04, 0xb9, 0xbd,
  0xc0, 0xb0, 0xf6, 0x3d, 0x80, 0x04, 0xb9, 0xbd, 0x80, 0xb0, 0x76, 0xbd,
  0x00, 0xb1, 0xf6, 0x3c, 0xc0, 0xb0, 0xf6, 0xbd, 0x80, 0x04, 0xb9, 0x3d,
  0x00, 0xb1, 0xf6, 0xbc, 0x00, 0xb1, 0xf6, 0x3c, 0xa0, 0x6f, 0xc8, 0x3e,
  0x70, 0x2e, 0x9a, 0x3e, 0x00, 0xb1, 0x76, 0x3d, 0x74, 0x2e, 0x9a, 0xbf,
  0x80, 0xb0, 0x76, 0xbd, 0xc0, 0xb0, 0xf6, 0x3d, 0x00, 0xb1, 0xf6, 0x3c,
  0xc0, 0xb0, 0xf6, 0x3d, 0x80, 0x04, 0xb9, 0x3d, 0xa0, 0x04, 0x39, 0x3e,
  0x00, 0xb1, 0x76, 0x3d, 0x80, 0x04, 0xb9, 0x3d, 0x00, 0xb1, 0x76, 0x3d,
  0xc0, 0xb0, 0xf6, 0xbd, 0x80, 0x04, 0xb9, 0x3d, 0x00, 0x00, 0x00, 0x00,
  0x00, 0x00, 0x00, 0x00, 0x00, 0xb1, 0xf6, 0xbc, 0x00, 0xb1, 0xf6, 0xbc,
  0x80, 0xb0, 0x76, 0xbd, 0xc0, 0xb0, 0xf6, 0x3d, 0xc0, 0xb0, 0xf6, 0x3d,
  0x80, 0x04, 0xb9, 0xbd, 0x80, 0x04, 0xb9, 0x3d, 0x00, 0xb1, 0xf6, 0x3c,
  0xc0, 0xb0, 0xf6, 0x3d, 0x80, 0xb0, 0x76, 0xbd, 0x00, 0xb1, 0xf6, 0x3c,
  0x00, 0xb1, 0xf6, 0x3c, 0x80, 0x04, 0xb9, 0x3d, 0xc0, 0xb0, 0xf6, 0x3d,
  0x00, 0xb1, 0xf6, 0xbc, 0x00, 0xb1, 0x76, 0x3d, 0x00, 0xb1, 0xf6, 0x3c,
  0xc0, 0xb0, 0xf6, 0xbd, 0x80, 0xb0, 0x76, 0xbd, 0x00, 0xb1, 0xf6, 0x3c,
  0x00, 0x00, 0x00, 0x00, 0x00, 0xb1, 0xf6, 0xbc, 0x00, 0xb1, 0xf6, 0x3c,
  0xee, 0x78, 0x12, 0x40, 0x00, 0xb1, 0xf6, 0x3c, 0x00, 0x00, 0x00, 0x00,
  0x60, 0x2e, 0x1a, 0xbe, 0xc0, 0xb0, 0xf6, 0xbd, 0x00, 0x00, 0x00, 0x00,
  0x00, 0xb1, 0xf6, 0x3c, 0x00, 0x00, 0x00, 0x00, 0x00, 0xb1, 0xf6, 0xbc,
  0x00, 0x00, 0x00, 0x00, 0x00, 0xb1, 0xf6, 0x3c, 0x00, 0xb1, 0x76, 0x3d,
  0x00, 0x00, 0x00, 0x00, 0xc8, 0x29, 0x35, 0x40, 0x00, 0x00, 0x00, 0x00,
  0xc0, 0xb0, 0xf6, 0x3d, 0x00, 0xb1, 0xf6, 0xbc, 0x00, 0x00, 0x00, 0x00,
  0x00, 0x00, 0x00, 0x00, 0x00, 0xb1, 0xf6, 0x3c, 0x00, 0xb1, 0xf6, 0xbc,
  0x00, 0x00, 0x00, 0x00, 0x00, 0x00, 0x00, 0x00, 0x00, 0xb1, 0xf6, 0x3c,
  0x00, 0xb1, 0xf6, 0x3c, 0x00, 0x00, 0x00, 0x00, 0x00, 0x00, 0x00, 0x00,
  0x00, 0xb1, 0xf6, 0x3c, 0x98, 0x6f, 0xc8, 0xbe, 0x00, 0xb1, 0xf6, 0x3c,
  0x80, 0xb0, 0x76, 0xbd, 0x00, 0xb1, 0x76, 0x3d, 0x60, 0x2e, 0x1a, 0xbe,
  0xc0, 0xb0, 0xf6, 0x3d, 0xa0, 0xda, 0x57, 0x3e, 0x00, 0xb1, 0xf6, 0x3c,
  0xa0, 0xda, 0x57, 0x3e, 0x80, 0x04, 0xb9, 0x3d, 0x00, 0xb1, 0xf6, 0xbc,
  0x80, 0x04, 0xb9, 0xbd, 0x00, 0xb1, 0x76, 0x3d, 0xc0, 0xb0, 0xf6, 0x3d,
  0x90, 0x04, 0xb9, 0x3e, 0xb8, 0xb0, 0xf6, 0xbe, 0x80, 0x04, 0xb9, 0x3d,
  0x70, 0x2e, 0x9a, 0x3e, 0x00, 0x00, 0x00, 0x00, 0x80, 0x04, 0xb9, 0x3d,
  0x60, 0x2e, 0x1a, 0xbe, 0x80, 0x04, 0xb9, 0x3d, 0x00, 0x00, 0x00, 0x00,
  0x80, 0x04, 0xb9, 0x3d, 0x00, 0xb1, 0xf6, 0xbc, 0x00, 0xb1, 0xf6, 0xbc,
  0x00, 0xb1, 0xf6, 0x3c, 0x00, 0xb1, 0x76, 0x3d, 0x80, 0x04, 0xb9, 0x3d,
  0xc0, 0xb0, 0xf6, 0x3d, 0xc0, 0xb0, 0xf6, 0x3d, 0x80, 0x04, 0xb9, 0x3d,
  0x70, 0xc3, 0x8a, 0x3e, 0xc0, 0xb0, 0x76, 0x3e, 0xc0, 0xb0, 0x76, 0x3e,
  0x00, 0x00, 0x00, 0x00, 0x00, 0xb1, 0xf6, 0x3c, 0x80, 0xb0, 0x76, 0xbd,
  0x68, 0xc3, 0x8a, 0xbf, 0xa2, 0xda, 0xd7, 0xbf, 0xc0, 0xb0, 0xf6, 0x3d,
  0x00, 0xb1, 0xf6, 0xbc, 0x80, 0x04, 0xb9, 0x3d, 0x20, 0x25, 0x50, 0x3f,
  0x00, 0x00, 0x00, 0x00, 0xa0, 0xda, 0x57, 0x3e, 0x00, 0xb1, 0xf6, 0xbc,
  0x00, 0xb1, 0x76, 0x3d, 0x00, 0xb1, 0xf6, 0x3c, 0x40, 0x66, 0xfe, 0x3f,
  0x80, 0x04, 0xb9, 0xbd, 0xb8, 0xb0, 0xf6, 0xbe, 0xa0, 0xda, 0x57, 0x3e,
  0x70, 0xc3, 0x8a, 0x3e, 0xb0, 0x45, 0xe7, 0x3e, 0x60, 0xc3, 0x8a, 0xbe,
  0xc0, 0xb0, 0x76, 0x3e, 0x00, 0x00, 0x00, 0x00, 0x00, 0xb1, 0xf6, 0x3c,
  0x80, 0xb0, 0x76, 0xbd, 0xe0, 0x0d, 0x03, 0xbf, 0x00, 0xb1, 0xf6, 0x3c,
  0xc0, 0xb0, 0xf6, 0xbd, 0x80, 0x04, 0x39, 0xbe, 0xa0, 0xda, 0xd7, 0xbe,
  0x98, 0x6f, 0xc8, 0xbe, 0xc0, 0xb0, 0xf6, 0x3d, 0x00, 0xb1, 0xf6, 0xbc,
  0xa0, 0xda, 0x57, 0xbe, 0xa0, 0xda, 0x57, 0x3e, 0x00, 0xb1, 0x76, 0x3d,
  0x00, 0xb1, 0x76, 0x3d, 0xc0, 0xb0, 0xf6, 0x3d, 0x80, 0x04, 0xb9, 0x3d,
  0x00, 0xb1, 0xf6, 0x3c, 0x80, 0x04, 0x39, 0xbe, 0x80, 0x04, 0xb9, 0x3d,
  0x80, 0x2e, 0x1a, 0x3e, 0xa0, 0xda, 0x57, 0x3e, 0x80, 0x04, 0xb9, 0xbd,
  0x80, 0x04, 0xb9, 0x3d, 0x80, 0xb0, 0x76, 0xbd, 0xc0, 0xb0, 0xf6, 0xbd,
  0x80, 0x04, 0xb9, 0x3d, 0x80, 0x04, 0xb9, 0x3d, 0xa0, 0x04, 0x39, 0x3e,
  0x00, 0xb1, 0xf6, 0x3c, 0x60, 0x2e, 0x1a, 0xbe, 0xa0, 0xda, 0x57, 0x3e,
  0x80, 0x04, 0xb9, 0x3d, 0x80, 0xb0, 0x76, 0xbd, 0xc0, 0xb0, 0xf6, 0xbd,
  0x00, 0xb1, 0x76, 0x3d, 0xa0, 0x04, 0x39, 0x3e, 0x80, 0x04, 0xb9, 0x3d,
  0x80, 0x04, 0xb9, 0x3d, 0x00, 0x00, 0x00, 0x00, 0x00, 0xb1, 0x76, 0x3d,
  0x00, 0xb1, 0x76, 0x3d, 0x80, 0x99, 0x29, 0x3f, 0x00, 0x00, 0x00, 0x00,
  0x80, 0x04, 0xb9, 0x3d, 0x70, 0xc3, 0x8a, 0x3e, 0x00, 0xb1, 0x76, 0x3d,
  0x00, 0x00, 0x00, 0x00, 0x00, 0xb1, 0xf6, 0xbc, 0x80, 0x04, 0xb9, 0x3d,
  0xc0, 0xb0, 0xf6, 0xbd, 0x00, 0xb1, 0xf6, 0xbc, 0x60, 0xc3, 0x8a, 0xbe,
  0x00, 0xb1, 0xf6, 0xbc, 0x80, 0xb0, 0x76, 0xbd, 0xa0, 0xda, 0x57, 0xbe,
  0x80, 0xb0, 0x76, 0xbd, 0xc0, 0xb0, 0xf6, 0x3d, 0x80, 0xb0, 0x76, 0xbd,
  0xe2, 0x0d, 0x83, 0xbf, 0x00, 0x00, 0x00, 0x00, 0x80, 0x04, 0xb9, 0x3d,
  0xc0, 0xb0, 0xf6, 0xbd, 0x80, 0x04, 0x39, 0xbe, 0x00, 0x00, 0x00, 0x00,
  0xf8, 0xe3, 0x21, 0x3f, 0x68, 0xc3, 0x8a, 0x3f, 0x00, 0xb1, 0x76, 0x3d,
  0x00, 0xb1, 0x76, 0x3d, 0x68, 0xc3, 0x0a, 0x3f, 0xc0, 0xb0, 0xf6, 0xbd,
  0x80, 0x04, 0xb9, 0xbd, 0xf8, 0xe3, 0x21, 0x3f, 0x00, 0x00, 0x00, 0x00,
  0x00, 0xb1, 0xf6, 0xbc, 0x00, 0x00, 0x00, 0x00, 0x00, 0xb1, 0x76, 0x3d,
  0x00, 0xb1, 0xf6, 0x3c, 0xc0, 0xb0, 0xf6, 0xbd, 0x00, 0xb1, 0xf6, 0x3c,
  0x00, 0x00, 0x00, 0x00, 0x00, 0xb1, 0xf6, 0xbc, 0x80, 0x04, 0x39, 0xbe,
  0x00, 0xb1, 0x76, 0x3d, 0xc0, 0xb0, 0xf6, 0x3d, 0x00, 0xb1, 0x76, 0x3d,
  0x00, 0xb1, 0xf6, 0xbc, 0x00, 0xb1, 0x76, 0x3d, 0x80, 0xb0, 0x76, 0xbd,
  0x00, 0xb1, 0xf6, 0x3c, 0x80, 0xb0, 0x76, 0xbd, 0x00, 0x00, 0x00, 0x00,
  0x00, 0xb1, 0x76, 0x3d, 0x00, 0x00, 0x00, 0x00, 0x00, 0x00, 0x00, 0x00,
  0x00, 0xb1, 0xf6, 0x3c, 0x00, 0x00, 0x00, 0x00, 0x00, 0x00, 0x00, 0x00,
  0x00, 0x00, 0x00, 0x00, 0x80, 0xb0, 0x76, 0xbd, 0x80, 0xb0, 0x76, 0xbd,
  0x80, 0xb0, 0x76, 0xbd, 0x00, 0x00, 0x00, 0x00, 0x00, 0xb1, 0xf6, 0x3c,
  0x00, 0x00, 0x00, 0x00, 0x00, 0x00, 0x00, 0x00, 0x00, 0x00, 0x00, 0x00,
  0xc0, 0xb0, 0x76, 0xbe, 0x00, 0x00, 0x00, 0x00, 0x00, 0x00, 0x00, 0x00,
  0x00, 0x00, 0x00, 0x00, 0x80, 0x04, 0xb9, 0x3d, 0x00, 0x00, 0x00, 0x00,
  0x00, 0xb1, 0xf6, 0x3c, 0x00, 0x00, 0x00, 0x00, 0x00, 0x00, 0x00, 0x00,
  0x00, 0x00, 0x00, 0x00, 0x00, 0x00, 0x00, 0x00, 0x80, 0x2e, 0x1a, 0x3e,
  0x00, 0xb1, 0xf6, 0xbc, 0xc0, 0xb0, 0xf6, 0xbd, 0x00, 0x00, 0x00, 0x00,
  0x00, 0x00, 0x00, 0x00, 0x00, 0x00, 0x00, 0x00, 0x00, 0xb1, 0xf6, 0xbc,
  0x00, 0xb1, 0xf6, 0x3c, 0x00, 0x00, 0x00, 0x00, 0x00, 0x00, 0x00, 0x00,
  0x00, 0x00, 0x00, 0x00, 0x00, 0x00, 0x00, 0x00, 0x00, 0x00, 0x00, 0x00,
  0x00, 0x00, 0x00, 0x00, 0x00, 0x00, 0x00, 0x00, 0x00, 0x00, 0x00, 0x00,
  0x00, 0x00, 0x00, 0x00, 0xee, 0x78, 0x12, 0xc0, 0x00, 0x00, 0x00, 0x00,
  0x80, 0x04, 0xb9, 0x3d, 0x00, 0xb1, 0xf6, 0xbc, 0x80, 0x04, 0xb9, 0xbd,
  0x00, 0xb1, 0x76, 0x3d, 0x80, 0xb0, 0x76, 0xbd, 0x00, 0x00, 0x00, 0x00,
  0x00, 0xb1, 0xf6, 0xbc, 0x00, 0xb1, 0xf6, 0x3c, 0x80, 0xb0, 0x76, 0xbd,
  0x00, 0xb1, 0x76, 0x3d, 0x80, 0x04, 0xb9, 0x3d, 0x80, 0x2e, 0x1a, 0x3e,
  0x00, 0xb1, 0x76, 0x3d, 0x00, 0xb1, 0xf6, 0x3c, 0x00, 0x00, 0x00, 0x00,
  0x00, 0xb1, 0xf6, 0x3c, 0x80, 0xb0, 0x76, 0xbd, 0x00, 0xb1, 0xf6, 0xbc,
  0x00, 0x00, 0x00, 0x00, 0x00, 0xb1, 0x76, 0x3d, 0x80, 0x2e, 0x1a, 0x3e,
  0x00, 0x00, 0x00, 0x00, 0x00, 0x00, 0x00, 0x00, 0x80, 0x04, 0xb9, 0x3d,
  0xc0, 0xb0, 0xf6, 0x3d, 0x80, 0x04, 0xb9, 0xbd, 0x00, 0xb1, 0x76, 0x3d,
  0xc0, 0xb0, 0xf6, 0x3d, 0x80, 0x2e, 0x1a, 0x3e, 0x00, 0xb1, 0xf6, 0xbc,
  0xc0, 0xb0, 0xf6, 0x3d, 0xc0, 0xb0, 0xf6, 0x3d, 0x00, 0xb1, 0xf6, 0x3c,
  0x00, 0xb1, 0xf6, 0xbc, 0x00, 0x00, 0x00, 0x00, 0x00, 0xb1, 0xf6, 0x3c,
  0x00, 0xb1, 0xf6, 0x3c, 0x00, 0xb1, 0xf6, 0xbc, 0x00, 0xb1, 0xf6, 0xbc,
  0x00, 0xb1, 0x76, 0x3d, 0x00, 0xb1, 0xf6, 0xbc, 0xa0, 0x04, 0x39, 0x3e,
  0x00, 0x00, 0x00, 0x00, 0x00, 0x00, 0x00, 0x00, 0x00, 0xb1, 0xf6, 0x3c,
  0xb4, 0x53, 0x96, 0x3f, 0x80, 0xb0, 0x76, 0xbd, 0x80, 0x04, 0xb9, 0x3d,
  0x00, 0xb1, 0xf6, 0x3c, 0x00, 0xb1, 0xf6, 0x3c, 0x00, 0xb1, 0xf6, 0xbc,
  0x00, 0x00, 0x00, 0x00, 0x80, 0x04, 0xb9, 0xbd, 0x00, 0xb1, 0xf6, 0x3c,
  0x00, 0x00, 0x00, 0x00, 0x00, 0x00, 0x00, 0x00, 0x00, 0x00, 0x00, 0x00,
  0x00, 0xb1, 0xf6, 0x3c, 0x00, 0xb1, 0xf6, 0xbc, 0x00, 0x00, 0x00, 0x00,
  0x00, 0x00, 0x00, 0x00, 0x00, 0xb1, 0xf6, 0xbc, 0xc0, 0xb0, 0xf6, 0x3d,
  0x00, 0xb1, 0xf6, 0x3c, 0x00, 0xb1, 0xf6, 0x3c, 0x80, 0x04, 0xb9, 0xbd,
  0x00, 0xb1, 0x76, 0x3d, 0x00, 0xb1, 0x76, 0x3d, 0x00, 0x00, 0x00, 0x00,
  0x80, 0x04, 0xb9, 0x3d, 0x00, 0xb1, 0x76, 0x3d, 0x80, 0x04, 0xb9, 0xbd,
  0x80, 0x04, 0xb9, 0x3d, 0x80, 0xb0, 0x76, 0xbd, 0x00, 0xb1, 0x76, 0x3d,
  0x00, 0xb1, 0xf6, 0x3c, 0x00, 0xb1, 0x76, 0x3d, 0x00, 0x00, 0x00, 0x00,
  0x00, 0xb1, 0xf6, 0xbc, 0x00, 0x00, 0x00, 0x00, 0x80, 0xb0, 0x76, 0xbd,
  0x00, 0x00, 0x00, 0x00, 0x00, 0xb1, 0xf6, 0xbc, 0x80, 0xb0, 0x76, 0xbd,
  0x00, 0xb1, 0x76, 0x3d, 0x00, 0xb1, 0xf6, 0xbc, 0x00, 0x00, 0x00, 0x00,
  0x00, 0xb1, 0x76, 0x3d, 0x00, 0xb1, 0xf6, 0x3c, 0x00, 0xb1, 0xf6, 0x3c,
  0x80, 0x2e, 0x1a, 0x3e, 0x80, 0x2e, 0x1a, 0x3e, 0x00, 0xb1, 0x76, 0x3d,
  0xa0, 0x04, 0x39, 0x3e, 0xc0, 0xb0, 0xf6, 0x3d, 0xc0, 0xb0, 0xf6, 0xbd,
  0x00, 0x00, 0x00, 0x00, 0x80, 0x04, 0x39, 0xbe, 0x00, 0x00, 0x00, 0x00,
  0x00, 0x00, 0x00, 0x00, 0x00, 0xb1, 0xf6, 0xbc, 0x00, 0x00, 0x00, 0x00,
  0x00, 0x00, 0x00, 0x00, 0x00, 0x00, 0x00, 0x00, 0x80, 0xb0, 0x76, 0xbd,
  0x80, 0x04, 0x39, 0xbe, 0x00, 0x00, 0x00, 0x00, 0x80, 0xb0, 0x76, 0xbd,
  0x00, 0x00, 0x00, 0x00, 0x82, 0x20, 0x01, 0x40, 0x70, 0x2e, 0x9a, 0xbe,
  0x80, 0xb0, 0x76, 0xbd, 0x00, 0x00, 0x00, 0x00, 0x00, 0xb1, 0xf6, 0xbc,
  0xc0, 0xb0, 0xf6, 0x3d, 0x00, 0xb1, 0xf6, 0x3c, 0x00, 0xb1, 0xf6, 0xbc,
  0x00, 0x00, 0x00, 0x00, 0x00, 0x00, 0x00, 0x00, 0x00, 0x00, 0x00, 0x00,
  0x00, 0xb1, 0xf6, 0xbc, 0xc0, 0xb0, 0xf6, 0xbd, 0x00, 0xb1, 0xf6, 0x3c,
  0x00, 0x00, 0x00, 0x00, 0x00, 0x00, 0x00, 0x00, 0x80, 0x04, 0xb9, 0x3d,
  0x00, 0xb1, 0x76, 0x3d, 0x80, 0xb0, 0x76, 0xbd, 0x00, 0x00, 0x00, 0x00,
  0xa0, 0x04, 0x39, 0x3e, 0x80, 0x2e, 0x1a, 0x3e, 0x00, 0xb1, 0x76, 0x3d,
  0x00, 0xb1, 0x76, 0x3d, 0xa0, 0x04, 0x39, 0x3e, 0x00, 0xb1, 0x76, 0x3d,
  0x80, 0x04, 0xb9, 0xbd, 0xc0, 0xb0, 0xf6, 0x3d, 0x00, 0xb1, 0x76, 0x3d,
  0x00, 0xb1, 0xf6, 0x3c, 0x00, 0x00, 0x00, 0x00, 0x80, 0x04, 0xb9, 0xbd,
  0xa0, 0xda, 0xd7, 0x3e, 0x00, 0x00, 0x00, 0x00, 0x00, 0xb1, 0xf6, 0xbc,
  0x60, 0x2e, 0x1a, 0xbe, 0x60, 0x2e, 0x1a, 0xbe, 0x80, 0xb0, 0x76, 0xbd,
  0xc0, 0xb0, 0xf6, 0x3d, 0x00, 0xb1, 0x76, 0x3d, 0x00, 0xb1, 0xf6, 0x3c,
  0xc0, 0xb0, 0x76, 0xbe, 0x00, 0xb1, 0xf6, 0x3c, 0x80, 0x2e, 0x1a, 0x3e,
  0x00, 0xb1, 0xf6, 0xbc, 0xc0, 0xb0, 0xf6, 0x3d, 0x80, 0x04, 0xb9, 0x3d,
  0x80, 0x04, 0xb9, 0xbd, 0x00, 0xb1, 0xf6, 0x3c, 0x80, 0x04, 0xb9, 0xbd,
  0x60, 0x2e, 0x1a, 0xbe, 0x80, 0xb0, 0x76, 0xbd, 0x00, 0x00, 0x00, 0x00,
  0x00, 0xb1, 0xf6, 0xbc, 0x00, 0xb1, 0xf6, 0x3c, 0x80, 0x04, 0xb9, 0x3d,
  0x80, 0xb0, 0x76, 0xbd, 0x70, 0x2e, 0x9a, 0x3e, 0xc0, 0xb0, 0x76, 0x3e,
  0x5c, 0x4a, 0xcc, 0x3f, 0x00, 0xb1, 0xf6, 0x3c, 0x42, 0x74, 0xad, 0xbf,
  0x00, 0xb1, 0xf6, 0xbc, 0x40, 0x66, 0x7e, 0xbf, 0x00, 0xb1, 0xf6, 0x3c,
  0x00, 0x00, 0x00, 0x00, 0x70, 0xc3, 0x8a, 0x3e, 0x80, 0xb0, 0x76, 0xbd,
  0x00, 0xb1, 0xf6, 0xbc, 0x00, 0xb1, 0xf6, 0xbc, 0xc0, 0xb0, 0x76, 0x3e,
  0x80, 0xb0, 0x76, 0xbd, 0x00, 0xb1, 0x76, 0x3d, 0x00, 0x00, 0x00, 0x00,
  0x28, 0x90, 0x5f, 0x3f, 0x00, 0x00, 0x00, 0x00, 0x00, 0x00, 0x00, 0x00,
  0x00, 0xb1, 0xf6, 0xbc, 0xa0, 0xda, 0x57, 0x3e, 0x00, 0x00, 0x00, 0x00,
  0x80, 0xb0, 0x76, 0xbd, 0xc0, 0xb0, 0xf6, 0x3d, 0x00, 0xb1, 0xf6, 0x3c,
  0x00, 0xb1, 0xf6, 0xbc, 0x80, 0xb0, 0x76, 0xbd, 0x80, 0x04, 0xb9, 0xbd,
  0xc0, 0xb0, 0xf6, 0x3d, 0x80, 0x04, 0xb9, 0x3d, 0x80, 0xb0, 0x76, 0xbd,
  0x00, 0xb1, 0xf6, 0xbc, 0xa0, 0x04, 0x39, 0x3e, 0x80, 0x04, 0xb9, 0x3d,
  0x80, 0x04, 0xb9, 0xbd, 0xa0, 0x04, 0x39, 0x3e, 0x80, 0x04, 0xb9, 0xbd,
  0x80, 0xb0, 0x76, 0xbd, 0x80, 0x2e, 0x1a, 0x3e, 0xc0, 0xb0, 0xf6, 0x3d,
  0x60, 0x2e, 0x1a, 0xbe, 0x80, 0x04, 0xb9, 0xbd, 0x60, 0x2e, 0x1a, 0xbe,
  0x80, 0x04, 0xb9, 0xbd, 0x80, 0x04, 0xb9, 0xbd, 0x80, 0x2e, 0x1a, 0x3e,
  0x00, 0x00, 0x00, 0x00, 0xa0, 0xda, 0x57, 0x3e, 0x00, 0xb1, 0xf6, 0xbc,
  0xc0, 0xb0, 0xf6, 0x3d, 0x80, 0x04, 0xb9, 0x3d, 0x00, 0xb1, 0xf6, 0x3c,
  0x80, 0x04, 0xb9, 0x3d, 0x00, 0xb1, 0xf6, 0x3c, 0xa0, 0x04, 0x39, 0x3e,
  0x00, 0xb1, 0xf6, 0x3c, 0xa0, 0xda, 0x57, 0xbe, 0x70, 0x2e, 0x9a, 0x3e,
  0x00, 0x00, 0x00, 0x00, 0x00, 0xb1, 0xf6, 0x3c, 0xc0, 0xb0, 0xf6, 0x3d,
  0x80, 0x04, 0xb9, 0xbd, 0x00, 0xb1, 0xf6, 0x3c, 0x00, 0xb1, 0xf6, 0xbc,
  0x00, 0xb1, 0xf6, 0xbc, 0x74, 0x2e, 0x1a, 0xbf, 0xb8, 0xb0, 0x76, 0x3f,
  0x70, 0x2e, 0x9a, 0x3e, 0xc0, 0xb0, 0xf6, 0xbd, 0x80, 0x99, 0x29, 0xbf,
  0x00, 0x00, 0x00, 0x00, 0x60, 0x2e, 0x1a, 0xbe, 0x80, 0x04, 0xb9, 0x3d,
  0x60, 0xc3, 0x8a, 0xbe, 0x00, 0x00, 0x00, 0x00, 0x00, 0xb1, 0xf6, 0x3c,
  0x00, 0xb1, 0xf6, 0xbc, 0xc0, 0xb0, 0x76, 0xbe, 0x00, 0xb1, 0xf6, 0x3c,
  0xc0, 0xb0, 0x76, 0x3e, 0x00, 0xb1, 0xf6, 0xbc, 0xa0, 0xda, 0x57, 0x3e,
  0x00, 0x00, 0x00, 0x00, 0xc0, 0xb0, 0x76, 0x3e, 0xc0, 0xb0, 0xf6, 0x3e,
  0x00, 0x00, 0x00, 0x00, 0x80, 0x04, 0xb9, 0xbd, 0x80, 0xb0, 0x76, 0xbd,
  0x00, 0x00, 0x00, 0x00, 0x80, 0x04, 0xb9, 0xbd, 0x00, 0xb1, 0xf6, 0xbc,
  0x80, 0xb0, 0x76, 0xbd, 0x00, 0xb1, 0x76, 0x3d, 0x00, 0xb1, 0xf6, 0x3c,
  0x80, 0x04, 0xb9, 0x3d, 0x00, 0xb1, 0x76, 0x3d, 0x80, 0x2e, 0x1a, 0x3e,
  0x80, 0x04, 0xb9, 0xbd, 0x80, 0xb0, 0x76, 0xbd, 0x00, 0xb1, 0x76, 0x3d,
  0x00, 0xb1, 0xf6, 0xbc, 0x60, 0x2e, 0x1a, 0xbe, 0x00, 0xb1, 0xf6, 0xbc,
  0x00, 0xb1, 0x76, 0x3d, 0x00, 0xb1, 0xf6, 0xbc, 0x80, 0xb0, 0x76, 0xbd,
  0x00, 0x00, 0x00, 0x00, 0x00, 0xb1, 0xf6, 0xbc, 0x80, 0xb0, 0x76, 0xbd,
  0xa0, 0x04, 0x39, 0x3e, 0x00, 0x00, 0x00, 0x00, 0x80, 0x04, 0xb9, 0x3d,
  0xa0, 0x04, 0x39, 0x3e, 0x80, 0x04, 0x39, 0xbe, 0x00, 0x00, 0x00, 0x00,
  0x00, 0xb1, 0xf6, 0xbc, 0x80, 0x04, 0xb9, 0xbd, 0x00, 0xb1, 0x76, 0x3d,
  0x80, 0x2e, 0x1a, 0x3e, 0x00, 0xb1, 0xf6, 0x3c, 0x00, 0xb1, 0xf6, 0xbc,
  0x00, 0x00, 0x00, 0x00, 0x00, 0x00, 0x00, 0x00, 0x00, 0x00, 0x00, 0x00,
  0x00, 0x00, 0x00, 0x00, 0x00, 0x00, 0x00, 0x00, 0x00, 0x00, 0x00, 0x00,
  0x00, 0x00, 0x00, 0x00, 0x00, 0x00, 0x00, 0x00, 0xc0, 0xb0, 0x76, 0xbe,
  0x00, 0x00, 0x00, 0x00, 0x00, 0xb1, 0xf6, 0x3c, 0xc0, 0xb0, 0xf6, 0x3d,
  0x00, 0xb1, 0xf6, 0xbc, 0x00, 0x00, 0x00, 0x00, 0x00, 0xb1, 0x76, 0x3d,
  0x00, 0xb1, 0xf6, 0x3c, 0x80, 0x04, 0xb9, 0x3d, 0x00, 0xb1, 0xf6, 0xbc,
  0x00, 0x00, 0x00, 0x00, 0x00, 0xb1, 0xf6, 0x3c, 0x00, 0x00, 0x00, 0x00,
  0x00, 0x00, 0x00, 0x00, 0x80, 0xb0, 0x76, 0xbd, 0x00, 0x00, 0x00, 0x00,
  0x80, 0x04, 0xb9, 0x3d, 0x00, 0xb1, 0x76, 0x3d, 0x00, 0x00, 0x00, 0x00,
  0x00, 0xb1, 0xf6, 0xbc, 0x80, 0xb0, 0x76, 0xbd, 0xa2, 0xda, 0xd7, 0xbf,
  0x00, 0xb1, 0xf6, 0xbc, 0x00, 0xb1, 0xf6, 0xbc, 0xc0, 0xb0, 0xf6, 0xbd,
  0x80, 0x04, 0xb9, 0x3d, 0x80, 0x04, 0xb9, 0x3d, 0x80, 0x04, 0xb9, 0x3d,
  0x00, 0x00, 0x00, 0x00, 0xa0, 0x04, 0x39, 0x3e, 0xa0, 0xda, 0x57, 0x3e,
  0x00, 0xb1, 0xf6, 0xbc, 0x80, 0x2e, 0x1a, 0x3e, 0xc0, 0xb0, 0xf6, 0xbd,
  0xa0, 0x04, 0x39, 0x3e, 0x80, 0x99, 0xa9, 0x3e, 0x80, 0x04, 0xb9, 0x3d,
  0x98, 0x6f, 0xc8, 0xbe, 0xa0, 0xda, 0x57, 0x3e, 0xa0, 0x04, 0x39, 0x3e,
  0x80, 0xb0, 0x76, 0xbd, 0xc0, 0xb0, 0xf6, 0x3d, 0xc0, 0xb0, 0xf6, 0xbd,
  0xc0, 0xb0, 0xf6, 0x3d, 0x80, 0x04, 0xb9, 0x3d, 0x00, 0xb1, 0xf6, 0x3c,
  0x00, 0x00, 0x00, 0x00, 0xc0, 0xb0, 0x76, 0x3e, 0xc0, 0xb0, 0xf6, 0x3d,
  0x00, 0xb1, 0xf6, 0x3c, 0x80, 0x04, 0xb9, 0x3d, 0x80, 0x2e, 0x1a, 0x3e,
  0xc0, 0xb0, 0xf6, 0x3d, 0xc0, 0xb0, 0xf6, 0xbd, 0x00, 0xb1, 0xf6, 0x3c,
  0xa0, 0x04, 0x39, 0x3e, 0xc0, 0xb0, 0xf6, 0x3d, 0x00, 0xb1, 0xf6, 0x3c,
  0xc0, 0xb0, 0x76, 0xbe, 0xc0, 0xb0, 0x76, 0x3e, 0xe2, 0x0d, 0x83, 0xbf,
  0xd4, 0x94, 0xc4, 0x3f, 0x80, 0x99, 0x29, 0x3f, 0xfa, 0xe3, 0xa1, 0xbf,
  0xa0, 0xda, 0x57, 0x3e, 0x00, 0xb1, 0xf6, 0xbc, 0xa0, 0xda, 0x57, 0x3e,
  0x80, 0xb0, 0x76, 0xbd, 0x80, 0x04, 0xb9, 0xbd, 0x00, 0xb1, 0x76, 0x3d,
  0x00, 0x00, 0x00, 0x00, 0x08, 0x4f, 0xb1, 0x3f, 0x00, 0xb1, 0xf6, 0x3c,
  0x34, 0xfb, 0x6e, 0xbf, 0x00, 0xb1, 0x76, 0x3d, 0xe8, 0x0d, 0x03, 0x3f,
  0xc0, 0xb0, 0xf6, 0x3e, 0x80, 0x04, 0x39, 0xbe, 0xa0, 0x04, 0x39, 0x3e,
  0x00, 0xb1, 0x76, 0x3d, 0x00, 0xb1, 0xf6, 0x3c, 0x00, 0x00, 0x00, 0x00,
  0x60, 0xc3, 0x8a, 0xbe, 0x00, 0xb1, 0xf6, 0x3c, 0x00, 0xb1, 0xf6, 0xbc,
  0x00, 0x00, 0x00, 0x00, 0x80, 0x99, 0x29, 0xbf, 0x00, 0x00, 0x00, 0x00,
  0x00, 0xb1, 0xf6, 0xbc, 0x80, 0x04, 0xb9, 0xbd, 0xb8, 0xb0, 0xf6, 0xbe,
  0x00, 0xb1, 0xf6, 0x3c, 0xc0, 0xb0, 0xf6, 0x3d, 0xc0, 0xb0, 0xf6, 0x3d,
  0x00, 0xb1, 0x76, 0x3d, 0xa0, 0xda, 0x57, 0x3e, 0x00, 0xb1, 0x76, 0x3d,
  0x80, 0x04, 0xb9, 0xbd, 0xc0, 0xb0, 0xf6, 0x3d, 0x00, 0xb1, 0xf6, 0x3c,
  0x70, 0xc3, 0x8a, 0x3e, 0x60, 0x2e, 0x1a, 0xbe, 0x00, 0xb1, 0xf6, 0xbc,
  0xc0, 0xb0, 0xf6, 0xbd, 0x00, 0xb1, 0xf6, 0x3c, 0x80, 0x04, 0xb9, 0x3d,
  0x00, 0xb1, 0xf6, 0x3c, 0x00, 0xb1, 0x76, 0x3d, 0x00, 0xb1, 0xf6, 0xbc,
  0x80, 0xb0, 0x76, 0xbd, 0x70, 0xc3, 0x8a, 0x3e, 0x80, 0x04, 0xb9, 0x3d,
  0x80, 0x2e, 0x1a, 0x3e, 0x00, 0xb1, 0xf6, 0xbc, 0x80, 0x2e, 0x1a, 0x3e,
  0xc0, 0xb0, 0xf6, 0x3d, 0x70, 0xc3, 0x8a, 0x3e, 0x80, 0x04, 0xb9, 0x3d,
  0xc0, 0xb0, 0xf6, 0xbd, 0x80, 0x04, 0xb9, 0x3d, 0x70, 0xc3, 0x8a, 0x3e,
  0x80, 0x04, 0x39, 0xbe, 0x00, 0x00, 0x00, 0x00, 0x80, 0x04, 0xb9, 0x3d,
  0xc0, 0xb0, 0xf6, 0x3e, 0x80, 0xb0, 0x76, 0xbd, 0x00, 0x00, 0x00, 0x00,
  0x00, 0xb1, 0xf6, 0xbc, 0xa0, 0x6f, 0xc8, 0x3e, 0x8e, 0x8b, 0x10, 0x40,
  0x80, 0x04, 0xb9, 0xbd, 0xa0, 0xda, 0xd7, 0xbe, 0x80, 0x04, 0xb9, 0xbd,
  0x00, 0xb1, 0xf6, 0x3c, 0xb8, 0xb0, 0x76, 0xbf, 0xc0, 0xb0, 0x76, 0x3e,
  0x98, 0x6f, 0xc8, 0xbe, 0xa0, 0x04, 0x39, 0x3e, 0x88, 0x04, 0xb9, 0xbe,
  0xc0, 0xb0, 0x76, 0x3e, 0xa0, 0x6f, 0xc8, 0x3e, 0xe0, 0x0d, 0x03, 0xbf,
  0x70, 0x2e, 0x9a, 0xbe, 0x00, 0xb1, 0xf6, 0xbc, 0x80, 0x2e, 0x1a, 0x3e,
  0x80, 0x04, 0xb9, 0xbd, 0x80, 0x04, 0xb9, 0x3d, 0x80, 0xb0, 0x76, 0xbd,
  0xa8, 0xe8, 0x86, 0x3f, 0xa0, 0xda, 0x57, 0xbf, 0x60, 0xc3, 0x8a, 0xbe,
  0x28, 0x90, 0x5f, 0x3f, 0x00, 0xb1, 0x76, 0x3d, 0xc0, 0xb0, 0xf6, 0xbd,
  0x00, 0x00, 0x00, 0x00, 0xa0, 0x04, 0x39, 0x3e, 0x80, 0x04, 0xb9, 0x3d,
  0x00, 0xb1, 0xf6, 0xbc, 0x00, 0xb1, 0x76, 0x3d, 0x00, 0xb1, 0xf6, 0xbc,
  0x80, 0x04, 0xb9, 0x3d, 0x00, 0xb1, 0xf6, 0x3c, 0x80, 0x04, 0xb9, 0xbd,
  0x00, 0xb1, 0xf6, 0xbc, 0x00, 0xb1, 0xf6, 0x3c, 0x00, 0xb1, 0xf6, 0xbc,
  0xc0, 0xb0, 0xf6, 0x3d, 0x80, 0x04, 0xb9, 0xbd, 0x80, 0x04, 0xb9, 0xbd,
  0xc0, 0xb0, 0xf6, 0x3d, 0x00, 0x00, 0x00, 0x00, 0x80, 0x2e, 0x1a, 0x3e,
  0x00, 0xb1, 0x76, 0x3d, 0x80, 0x04, 0xb9, 0xbd, 0x80, 0x04, 0xb9, 0x3d,
  0x80, 0x2e, 0x1a, 0x3e, 0x80, 0x04, 0xb9, 0x3d, 0x00, 0xb1, 0xf6, 0x3c,
  0x00, 0xb1, 0x76, 0x3d, 0xc0, 0xb0, 0xf6, 0x3d, 0x00, 0xb1, 0xf6, 0x3c,
  0xc0, 0xb0, 0xf6, 0x3d, 0x00, 0xb1, 0xf6, 0xbc, 0x00, 0x00, 0x00, 0x00,
  0x00, 0x00, 0x00, 0x00, 0xc0, 0xb0, 0xf6, 0x3d, 0x00, 0x00, 0x00, 0x00,
  0x00, 0xb1, 0xf6, 0xbc, 0x00, 0xb1, 0xf6, 0x3c, 0x00, 0x00, 0x00, 0x00,
  0x00, 0x00, 0x00, 0x00, 0x00, 0x00, 0x00, 0x00, 0x00, 0xb1, 0xf6, 0xbc,
  0xec, 0x78, 0x12, 0xbf, 0x00, 0xb1, 0xf6, 0xbc, 0x00, 0x00, 0x00, 0x00,
  0x00, 0xb1, 0xf6, 0x3c, 0x00, 0x00, 0x00, 0x00, 0xa0, 0xda, 0x57, 0x3e,
  0x00, 0xb1, 0x76, 0x3d, 0x00, 0xb1, 0xf6, 0xbc, 0x00, 0x00, 0x00, 0x00,
  0x80, 0x04, 0xb9, 0xbd, 0x00, 0xb1, 0xf6, 0xbc, 0x00, 0xb1, 0xf6, 0x3c,
  0x80, 0x04, 0xb9, 0x3d, 0x00, 0xb1, 0xf6, 0xbc, 0x00, 0x00, 0x00, 0x00,
  0x00, 0xb1, 0xf6, 0x3c, 0xa8, 0x45, 0xe7, 0xbe, 0x80, 0x04, 0xb9, 0x3d,
  0x00, 0x00, 0x00, 0x00, 0x88, 0x04, 0xb9, 0xbe, 0x60, 0x2e, 0x1a, 0xbe,
  0x00, 0xb1, 0xf6, 0xbc, 0x80, 0xb0, 0x76, 0xbd, 0xc0, 0xb0, 0xf6, 0x3d,
  0x00, 0xb1, 0xf6, 0xbc, 0x00, 0xb1, 0xf6, 0x3c, 0x00, 0xb1, 0xf6, 0x3c,
  0x80, 0x04, 0xb9, 0x3d, 0xc0, 0xb0, 0xf6, 0x3d, 0x80, 0x04, 0xb9, 0x3d,
  0x80, 0xb0, 0x76, 0xbd, 0x00, 0xb1, 0x76, 0x3d, 0x80, 0x04, 0xb9, 0x3d,
  0xa0, 0xda, 0x57, 0x3e, 0x00, 0xb1, 0x76, 0x3d, 0x80, 0x04, 0xb9, 0x3d,
  0x00, 0xb1, 0xf6, 0xbc, 0x00, 0xb1, 0x76, 0x3d, 0x00, 0xb1, 0x76, 0x3d,
  0x80, 0x04, 0xb9, 0xbd, 0x00, 0x00, 0x00, 0x00, 0x00, 0x00, 0x00, 0x00,
  0x80, 0x04, 0xb9, 0x3d, 0x00, 0x00, 0x00, 0x00, 0x00, 0xb1, 0x76, 0x3d,
  0x00, 0xb1, 0xf6, 0xbc, 0xc0, 0xb0, 0xf6, 0x3d, 0x80, 0x2e, 0x1a, 0x3e,
  0x80, 0x04, 0xb9, 0xbd, 0x00, 0xb1, 0xf6, 0x3c, 0x80, 0x04, 0xb9, 0x3d,
  0x80, 0x04, 0xb9, 0xbd, 0x00, 0x00, 0x00, 0x00, 0xc0, 0xb0, 0xf6, 0x3d,
  0xc0, 0xb0, 0xf6, 0x3d, 0x00, 0xb1, 0x76, 0x3d, 0x00, 0xb1, 0xf6, 0x3c,
  0x00, 0xb1, 0xf6, 0x3c, 0x00, 0x00, 0x00, 0x00, 0x80, 0x04, 0xb9, 0x3d,
  0x80, 0x04, 0xb9, 0xbd, 0x80, 0x04, 0xb9, 0xbd, 0x00, 0x00, 0x00, 0x00,
  0x00, 0xb1, 0xf6, 0xbc, 0x00, 0x00, 0x00, 0x00, 0x00, 0xb1, 0xf6, 0x3c,
  0x80, 0xb0, 0x76, 0xbd, 0x00, 0xb1, 0xf6, 0x3c, 0xc0, 0xb0, 0x76, 0x3e,
  0x00, 0x00, 0x00, 0x00, 0xc0, 0xb0, 0xf6, 0xbd, 0x00, 0x00, 0x00, 0x00,
  0x80, 0xb0, 0x76, 0xbd, 0x00, 0x00, 0x00, 0x00, 0x00, 0xb1, 0xf6, 0x3c,
  0x80, 0xb0, 0x76, 0xbd, 0x00, 0x00, 0x00, 0x00, 0x80, 0xb0, 0x76, 0xbd,
  0x00, 0x00, 0x00, 0x00, 0x00, 0x00, 0x00, 0x00, 0x00, 0xb1, 0xf6, 0xbc,
  0x00, 0xb1, 0xf6, 0xbc, 0x00, 0x00, 0x00, 0x00, 0x00, 0x00, 0x00, 0x00,
  0x00, 0x00, 0x00, 0x00, 0x98, 0x6f, 0xc8, 0xbe, 0x00, 0xb1, 0x76, 0x3d,
  0x00, 0xb1, 0x76, 0x3d, 0x00, 0xb1, 0xf6, 0x3c, 0x00, 0x00, 0x00, 0x00,
  0x00, 0xb1, 0x76, 0x3d, 0xa0, 0x04, 0x39, 0x3e, 0xa0, 0xda, 0x57, 0xbe,
  0x00, 0xb1, 0xf6, 0x3c, 0xc0, 0xb0, 0xf6, 0x3d, 0x00, 0x00, 0x00, 0x00,
  0x00, 0x00, 0x00, 0x00, 0x00, 0x00, 0x00, 0x00, 0x00, 0x00, 0x00, 0x00,
  0x00, 0x00, 0x00, 0x00, 0x00, 0xb1, 0xf6, 0x3c, 0xc0, 0xb0, 0xf6, 0x3d,
  0x00, 0x00, 0x00, 0x00, 0x80, 0xb0, 0x76, 0xbd, 0x00, 0xb1, 0xf6, 0x3c,
  0x00, 0xb1, 0xf6, 0xbc, 0x00, 0xb1, 0x76, 0x3d, 0x80, 0x04, 0xb9, 0xbd,
  0x80, 0xb0, 0x76, 0xbd, 0x80, 0xb0, 0x76, 0xbd, 0x00, 0x00, 0x00, 0x00,
  0x00, 0xb1, 0xf6, 0x3c, 0x00, 0x00, 0x00, 0x00, 0x80, 0x2e, 0x1a, 0x3e,
  0x00, 0xb1, 0x76, 0x3d, 0x80, 0x04, 0xb9, 0x3d, 0xc0, 0xb0, 0xf6, 0x3d,
  0x80, 0x04, 0xb9, 0x3d, 0x80, 0x04, 0xb9, 0x3d, 0x00, 0xb1, 0xf6, 0xbc,
  0x80, 0x99, 0xa9, 0xbe, 0x00, 0x00, 0x00, 0x00, 0x00, 0x00, 0x00, 0x00,
  0x80, 0x04, 0xb9, 0x3d, 0x00, 0xb1, 0xf6, 0x3c, 0x00, 0x00, 0x00, 0x00,
  0x00, 0xb1, 0xf6, 0xbc, 0x80, 0xb0, 0x76, 0xbd, 0x28, 0x90, 0x5f, 0x3f,
  0x00, 0x00, 0x00, 0x00, 0x00, 0xb1, 0xf6, 0x3c, 0x00, 0xb1, 0xf6, 0x3c,
  0x82, 0x20, 0x01, 0x40, 0x94, 0x6f, 0x48, 0xbf, 0x00, 0x00, 0x00, 0x00,
  0x00, 0x00, 0x00, 0x00, 0x00, 0x00, 0x00, 0x00, 0x00, 0x00, 0x00, 0x00,
  0x00, 0x00, 0x00, 0x00, 0xc0, 0xb0, 0xf6, 0xbd, 0x00, 0xb1, 0xf6, 0x3c,
  0x00, 0xb1, 0xf6, 0xbc, 0x00, 0x00, 0x00, 0x00, 0x00, 0xb1, 0xf6, 0xbc,
  0xa0, 0x6f, 0xc8, 0x3e, 0x00, 0xb1, 0xf6, 0xbc, 0x00, 0xb1, 0xf6, 0xbc,
  0x00, 0x00, 0x00, 0x00, 0x00, 0x00, 0x00, 0x00, 0xc0, 0xb0, 0xf6, 0xbd,
  0x00, 0xb1, 0xf6, 0x3c, 0x00, 0xb1, 0xf6, 0x3c, 0x00, 0x00, 0x00, 0x00,
  0x00, 0xb1, 0xf6, 0xbc, 0xc0, 0xb0, 0xf6, 0x3d, 0x60, 0x2e, 0x1a, 0xbe,
  0x80, 0x04, 0xb9, 0x3d, 0x00, 0x00, 0x00, 0x00, 0x00, 0x00, 0x00, 0x00,
  0x00, 0xb1, 0xf6, 0x3c, 0x00, 0x00, 0x00, 0x00, 0x00, 0xb1, 0xf6, 0x3c,
  0x00, 0xb1, 0xf6, 0xbc, 0x80, 0xb0, 0x76, 0xbd, 0x00, 0xb1, 0xf6, 0x3c,
  0x00, 0xb1, 0xf6, 0xbc, 0x00, 0x00, 0x00, 0x00, 0x00, 0xb1, 0xf6, 0xbc,
  0x00, 0x00, 0x00, 0x00, 0x00, 0xb1, 0xf6, 0x3c, 0x00, 0x00, 0x00, 0x00,
  0x80, 0x04, 0xb9, 0x3d, 0x00, 0xb1, 0xf6, 0x3c, 0x00, 0x00, 0x00, 0x00,
  0x00, 0xb1, 0xf6, 0xbc, 0xc0, 0xb0, 0xf6, 0xbd, 0x00, 0x00, 0x00, 0x00,
  0x00, 0x00, 0x00, 0x00, 0x00, 0xb1, 0x76, 0x3d, 0x00, 0xb1, 0x76, 0x3d,
  0x00, 0x00, 0x00, 0x00, 0x00, 0xb1, 0xf6, 0x3c, 0x00, 0xb1, 0xf6, 0xbc,
  0x00, 0xb1, 0xf6, 0xbc, 0x80, 0x04, 0x39, 0xbe, 0x00, 0x00, 0x00, 0x00,
  0x00, 0x00, 0x00, 0x00, 0x00, 0xb1, 0xf6, 0xbc, 0x00, 0x00, 0x00, 0x00,
  0x00, 0x00, 0x00, 0x00, 0x00, 0x00, 0x00, 0x00, 0x80, 0x04, 0xb9, 0xbd,
  0xa0, 0xda, 0xd7, 0xbe, 0x00, 0x00, 0x00, 0x00, 0x00, 0xb1, 0x76, 0x3d,
  0x00, 0x00, 0x00, 0x00, 0x80, 0x04, 0xb9, 0xbd, 0x00, 0xb1, 0x76, 0x3d,
  0x00, 0xb1, 0xf6, 0xbc, 0x00, 0x00, 0x00, 0x00, 0x00, 0x00, 0x00, 0x00,
  0x80, 0x04, 0xb9, 0x3d, 0x00, 0xb1, 0xf6, 0x3c, 0x00, 0x00, 0x00, 0x00,
  0x00, 0xb1, 0xf6, 0xbc, 0x00, 0x00, 0x00, 0x00, 0x00, 0x00, 0x00, 0x00,
  0x00, 0xb1, 0xf6, 0xbc, 0xe8, 0x0d, 0x03, 0x3f, 0x00, 0x00, 0x00, 0x00,
  0x00, 0x00, 0x00, 0x00, 0x00, 0xb1, 0xf6, 0x3c, 0x80, 0x04, 0xb9, 0xbd,
  0x00, 0x00, 0x00, 0x00, 0x00, 0x00, 0x00, 0x00, 0x00, 0x00, 0x00, 0x00,
  0x80, 0x2e, 0x1a, 0x3e, 0x80, 0x2e, 0x1a, 0x3e, 0xa0, 0xda, 0x57, 0x3e,
  0x80, 0x04, 0xb9, 0x3d, 0x00, 0xb1, 0xf6, 0xbc, 0x00, 0x00, 0x00, 0x00,
  0x80, 0x04, 0xb9, 0xbd, 0xc0, 0xb0, 0xf6, 0x3d, 0x00, 0xb1, 0xf6, 0x3c,
  0x00, 0xb1, 0x76, 0x3d, 0x00, 0xb1, 0x76, 0x3d, 0x00, 0x00, 0x00, 0x00,
  0x70, 0x2e, 0x9a, 0x3e, 0x00, 0x00, 0x00, 0x00, 0x00, 0xb1, 0xf6, 0x3c,
  0x80, 0x04, 0x39, 0xbe, 0x80, 0x04, 0xb9, 0xbd, 0x80, 0xb0, 0x76, 0xbd,
  0x80, 0x2e, 0x1a, 0x3e, 0x00, 0xb1, 0x76, 0x3d, 0x80, 0x04, 0xb9, 0x3d,
  0xa0, 0xda, 0x57, 0xbe, 0x80, 0x04, 0xb9, 0x3d, 0xc0, 0xb0, 0xf6, 0x3d,
  0x00, 0xb1, 0xf6, 0xbc, 0x00, 0xb1, 0x76, 0x3d, 0x00, 0xb1, 0x76, 0x3d,
  0xa0, 0xda, 0x57, 0xbe, 0x00, 0x00, 0x00, 0x00, 0x00, 0xb1, 0xf6, 0xbc,
  0x80, 0x04, 0x39, 0xbe, 0x80, 0xb0, 0x76, 0xbd, 0x00, 0x00, 0x00, 0x00,
  0x00, 0xb1, 0x76, 0x3d, 0x80, 0x99, 0xa9, 0xbe, 0x80, 0x04, 0xb9, 0x3d,
  0x80, 0xb0, 0x76, 0xbd, 0xc0, 0xb0, 0xf6, 0xbd, 0xc0, 0xb0, 0x76, 0xbe,
  0x68, 0xc3, 0x8a, 0x3f, 0x00, 0xb1, 0xf6, 0x3c, 0x34, 0xfb, 0x6e, 0xbf,
  0x00, 0xb1, 0xf6, 0xbc, 0x88, 0x04, 0xb9, 0xbe, 0x00, 0x00, 0x00, 0x00,
  0x00, 0xb1, 0xf6, 0xbc, 0x80, 0x04, 0x39, 0xbe, 0x00, 0xb1, 0xf6, 0xbc,
  0x80, 0x04, 0xb9, 0xbd, 0x00, 0xb1, 0xf6, 0xbc, 0xa0, 0x6f, 0xc8, 0x3e,
  0x00, 0xb1, 0xf6, 0xbc, 0x00, 0xb1, 0xf6, 0x3c, 0x00, 0xb1, 0xf6, 0xbc,
  0xb0, 0x45, 0x67, 0x3f, 0x00, 0x00, 0x00, 0x00, 0x00, 0x00, 0x00, 0x00,
  0x00, 0x00, 0x00, 0x00, 0x80, 0x2e, 0x1a, 0x3e, 0x00, 0x00, 0x00, 0x00,
  0x00, 0xb1, 0xf6, 0xbc, 0xa0, 0x04, 0x39, 0x3e, 0x00, 0xb1, 0x76, 0x3d,
  0x00, 0x00, 0x00, 0x00, 0x00, 0xb1, 0xf6, 0x3c, 0x80, 0x04, 0x39, 0xbe,
  0x00, 0xb1, 0x76, 0x3d, 0x00, 0xb1, 0xf6, 0x3c, 0x80, 0x04, 0xb9, 0x3d,
  0x00, 0xb1, 0xf6, 0x3c, 0xc0, 0xb0, 0xf6, 0x3d, 0x80, 0x2e, 0x1a, 0x3e,
  0x00, 0xb1, 0xf6, 0xbc, 0x80, 0x04, 0xb9, 0xbd, 0xc0, 0xb0, 0xf6, 0xbd,
  0x00, 0x00, 0x00, 0x00, 0x70, 0x2e, 0x9a, 0x3e, 0x80, 0x2e, 0x1a, 0x3e,
  0x60, 0x2e, 0x1a, 0xbe, 0x80, 0xb0, 0x76, 0xbd, 0xa0, 0xda, 0x57, 0xbe,
  0xc0, 0xb0, 0xf6, 0xbd, 0x00, 0xb1, 0x76, 0x3d, 0x00, 0xb1, 0x76, 0x3d,
  0x00, 0xb1, 0xf6, 0xbc, 0x00, 0xb1, 0x76, 0x3d, 0x80, 0x04, 0xb9, 0x3d,
  0xc0, 0xb0, 0x76, 0x3e, 0x00, 0xb1, 0xf6, 0x3c, 0x80, 0x04, 0xb9, 0xbd,
  0x00, 0x00, 0x00, 0x00, 0xa0, 0xda, 0x57, 0x3e, 0xa0, 0x04, 0x39, 0x3e,
  0x80, 0xb0, 0x76, 0xbd, 0xc0, 0xb0, 0xf6, 0xbd, 0x70, 0xc3, 0x8a, 0x3e,
  0x00, 0x00, 0x00, 0x00, 0x00, 0xb1, 0xf6, 0xbc, 0xa0, 0x04, 0x39, 0x3e,
  0x80, 0x04, 0xb9, 0xbd, 0x00, 0x00, 0x00, 0x00, 0x00, 0xb1, 0xf6, 0x3c,
  0x00, 0x00, 0x00, 0x00, 0x07, 0xd6, 0x88, 0xc0, 0xe4, 0x0d, 0x83, 0x3f,
  0x80, 0x99, 0xa9, 0x3e, 0x80, 0xb0, 0x76, 0xbd, 0xa2, 0xda, 0xd7, 0xbf,
  0x00, 0x00, 0x00, 0x00, 0x00, 0x00, 0x00, 0x00, 0x70, 0xc3, 0x8a, 0x3e,
  0x40, 0x66, 0x7e, 0x3f, 0x80, 0x04, 0xb9, 0x3d, 0x00, 0xb1, 0xf6, 0x3c,
  0xf0, 0x78, 0x12, 0x3f, 0x88, 0x04, 0xb9, 0xbe, 0x00, 0x00, 0x00, 0x00,
  0x80, 0x99, 0xa9, 0x3e, 0x00, 0xb1, 0xf6, 0xbc, 0xc0, 0xb0, 0xf6, 0x3d,
  0x00, 0xb1, 0xf6, 0xbc, 0xa0, 0xda, 0x57, 0x3e, 0xa0, 0x6f, 0xc8, 0x3e,
  0x80, 0x04, 0xb9, 0xbd, 0xc0, 0xb0, 0x76, 0xbe, 0x00, 0xb1, 0xf6, 0xbc,
  0xc0, 0xb0, 0xf6, 0xbd, 0x80, 0xb0, 0x76, 0xbd, 0x80, 0x04, 0xb9, 0xbd,
  0x00, 0xb1, 0xf6, 0xbc, 0x00, 0xb1, 0xf6, 0x3c, 0x00, 0xb1, 0x76, 0x3d,
  0x00, 0x00, 0x00, 0x00, 0x00, 0xb1, 0xf6, 0x3c, 0x80, 0x2e, 0x1a, 0x3e,
  0x00, 0x00, 0x00, 0x00, 0x00, 0x00, 0x00, 0x00, 0x00, 0xb1, 0x76, 0x3d,
  0x80, 0x04, 0xb9, 0x3d, 0x80, 0x04, 0x39, 0xbe, 0x00, 0x00, 0x00, 0x00,
  0x00, 0x00, 0x00, 0x00, 0x80, 0x04, 0xb9, 0xbd, 0x80, 0x04, 0xb9, 0xbd,
  0x00, 0x00, 0x00, 0x00, 0x00, 0xb1, 0xf6, 0xbc, 0x00, 0x00, 0x00, 0x00,
  0x00, 0xb1, 0xf6, 0x3c, 0x00, 0xb1, 0xf6, 0xbc, 0xc0, 0xb0, 0xf6, 0x3d,
  0x00, 0xb1, 0x76, 0x3d, 0x00, 0xb1, 0xf6, 0xbc, 0x00, 0xb1, 0x76, 0x3d,
  0xc0, 0xb0, 0xf6, 0x3d, 0x00, 0xb1, 0xf6, 0x3c, 0x80, 0x04, 0xb9, 0x3d,
  0x80, 0x04, 0xb9, 0x3d, 0x00, 0x00, 0x00, 0x00, 0x80, 0xb0, 0x76, 0xbd,
  0x00, 0xb1, 0xf6, 0x3c, 0x00, 0x00, 0x00, 0x00, 0x00, 0x00, 0x00, 0x00,
  0x00, 0x00, 0x00, 0x00, 0x00, 0xb1, 0xf6, 0xbc, 0x00, 0x00, 0x00, 0x00,
  0x00, 0x00, 0x00, 0x00, 0x00, 0x00, 0x00, 0x00, 0xc0, 0xb0, 0xf6, 0xbd,
  0x80, 0x04, 0xb9, 0x3d, 0x00, 0xb1, 0xf6, 0xbc, 0xc0, 0xb0, 0xf6, 0x3d,
  0x00, 0x00, 0x00, 0x00, 0x00, 0x00, 0x00, 0x00, 0x00, 0xb1, 0xf6, 0xbc,
  0x00, 0xb1, 0xf6, 0xbc, 0x70, 0x2e, 0x9a, 0x3e, 0x00, 0x00, 0x00, 0x00,
  0x00, 0xb1, 0x76, 0x3d, 0x00, 0xb1, 0xf6, 0xbc, 0x00, 0x00, 0x00, 0x00,
  0x00, 0xb1, 0x76, 0x3d, 0x00, 0xb1, 0xf6, 0xbc, 0x00, 0x00, 0x00, 0x00,
  0xa0, 0x04, 0x39, 0x3e, 0x80, 0xb0, 0x76, 0xbd, 0x00, 0xb1, 0x76, 0x3d,
  0x00, 0xb1, 0xf6, 0x3c, 0x60, 0x2e, 0x1a, 0xbe, 0x4e, 0xdf, 0xbc, 0xbf,
  0x00, 0xb1, 0xf6, 0xbc, 0x00, 0xb1, 0xf6, 0xbc, 0x80, 0x04, 0x39, 0xbe,
  0x80, 0x04, 0xb9, 0x3d, 0xa0, 0xda, 0x57, 0x3e, 0xc0, 0xb0, 0x76, 0x3e,
  0xc0, 0xb0, 0xf6, 0x3d, 0xa0, 0x04, 0x39, 0x3e, 0x00, 0xb1, 0x76, 0x3d,
  0x80, 0x04, 0xb9, 0x3d, 0x80, 0x04, 0xb9, 0x3d, 0x80, 0x04, 0xb9, 0xbd,
  0x80, 0x2e, 0x1a, 0x3e, 0x70, 0x2e, 0x9a, 0x3e, 0x80, 0x2e, 0x1a, 0x3e,
  0x80, 0x99, 0xa9, 0xbe, 0x00, 0xb1, 0xf6, 0x3c, 0xa0, 0x04, 0x39, 0x3e,
  0x80, 0x04, 0xb9, 0xbd, 0xc0, 0xb0, 0xf6, 0x3d, 0x80, 0x04, 0xb9, 0xbd,
  0x00, 0xb1, 0xf6, 0xbc, 0x80, 0x04, 0xb9, 0xbd, 0x80, 0x04, 0xb9, 0x3d,
  0x80, 0xb0, 0x76, 0xbd, 0x80, 0x2e, 0x1a, 0x3e, 0x00, 0x00, 0x00, 0x00,
  0x00, 0xb1, 0x76, 0x3d, 0xc0, 0xb0, 0xf6, 0x3d, 0x80, 0x04, 0xb9, 0x3d,
  0x80, 0x04, 0x39, 0xbe, 0x00, 0xb1, 0xf6, 0xbc, 0x00, 0xb1, 0x76, 0x3d,
  0xa0, 0x04, 0x39, 0x3e, 0x00, 0x00, 0x00, 0x00, 0x00, 0xb1, 0xf6, 0x3c,
  0x10, 0xba, 0x40, 0xbf, 0xc0, 0xb0, 0xf6, 0x3e, 0xf8, 0xe3, 0x21, 0xbf,
  0x2c, 0x9e, 0x8e, 0x3f, 0x96, 0x6f, 0xc8, 0xbf, 0x68, 0xc3, 0x8a, 0xbf,
  0xc0, 0xb0, 0xf6, 0x3d, 0x00, 0x00, 0x00, 0x00, 0xa0, 0xda, 0x57, 0x3e,
  0x80, 0xb0, 0x76, 0xbd, 0x00, 0x00, 0x00, 0x00, 0x00, 0xb1, 0x76, 0x3d,
  0x00, 0xb1, 0xf6, 0x3c, 0xd4, 0x94, 0x44, 0x40, 0x00, 0xb1, 0xf6, 0xbc,
  0xa0, 0xda, 0xd7, 0xbe, 0x00, 0xb1, 0xf6, 0x3c, 0x00, 0x00, 0x00, 0x00,
  0xa0, 0xda, 0x57, 0x3e, 0x80, 0xb0, 0x76, 0xbd, 0x80, 0x04, 0xb9, 0x3d,
  0x00, 0xb1, 0x76, 0x3d, 0x00, 0xb1, 0xf6, 0x3c, 0x00, 0x00, 0x00, 0x00,
  0xa0, 0xda, 0x57, 0xbe, 0x00, 0x00, 0x00, 0x00, 0x00, 0xb1, 0xf6, 0xbc,
  0x00, 0x00, 0x00, 0x00, 0x80, 0x99, 0x29, 0xbf, 0x80, 0x04, 0xb9, 0x3d,
  0x00, 0xb1, 0xf6, 0xbc, 0x00, 0xb1, 0xf6, 0xbc, 0xa0, 0xda, 0xd7, 0xbe,
  0x00, 0xb1, 0xf6, 0xbc, 0x00, 0xb1, 0x76, 0x3d, 0x00, 0xb1, 0xf6, 0x3c,
  0xa0, 0xda, 0x57, 0x3e, 0x00, 0xb1, 0x76, 0x3d, 0xc0, 0xb0, 0xf6, 0x3d,
  0x00, 0xb1, 0x76, 0x3d, 0x80, 0x04, 0xb9, 0x3d, 0x00, 0xb1, 0xf6, 0xbc,
  0xc0, 0xb0, 0xf6, 0x3d, 0xc0, 0xb0, 0x76, 0xbe, 0xa0, 0xda, 0x57, 0x3e,
  0x00, 0xb1, 0xf6, 0xbc, 0x00, 0xb1, 0x76, 0x3d, 0x80, 0x2e, 0x1a, 0x3e,
  0x00, 0x00, 0x00, 0x00, 0xc0, 0xb0, 0xf6, 0x3d, 0xa0, 0x04, 0x39, 0x3e,
  0x00, 0xb1, 0xf6, 0xbc, 0xa0, 0xda, 0x57, 0x3e, 0x00, 0xb1, 0x76, 0x3d,
  0xc0, 0xb0, 0xf6, 0x3d, 0x80, 0xb0, 0x76, 0xbd, 0xa0, 0x04, 0x39, 0x3e,
  0x80, 0x04, 0xb9, 0x3d, 0xc0, 0xb0, 0x76, 0x3e, 0x00, 0x00, 0x00, 0x00,
  0x80, 0x04, 0xb9, 0xbd, 0x80, 0x04, 0xb9, 0x3d, 0x80, 0x99, 0xa9, 0x3e,
  0xc0, 0xb0, 0xf6, 0xbd, 0x00, 0xb1, 0xf6, 0x3c, 0x00, 0xb1, 0xf6, 0xbc,
  0x78, 0x2e, 0x1a, 0x3f, 0xc0, 0xb0, 0x76, 0x3e, 0x00, 0xb1, 0xf6, 0x3c,
  0x80, 0xb0, 0x76, 0xbd, 0x80, 0x99, 0xa9, 0x3e, 0x28, 0x90, 0xdf, 0x3f,
  0x00, 0xb1, 0xf6, 0xbc, 0x68, 0xc3, 0x0a, 0x3f, 0x80, 0x04, 0x39, 0xbe,
  0x00, 0xb1, 0x76, 0x3d, 0xee, 0x78, 0x92, 0xbf, 0x98, 0x6f, 0x48, 0x3f,
  0x80, 0xb0, 0x76, 0xbd, 0xa8, 0xda, 0x57, 0x3f, 0x80, 0x04, 0xb9, 0xbd,
  0x00, 0xb1, 0xf6, 0xbc, 0x80, 0x99, 0x29, 0x3f, 0x8c, 0x04, 0x39, 0xbf,
  0xc0, 0xb0, 0xf6, 0x3d, 0x00, 0xb1, 0xf6, 0xbc, 0x00, 0x00, 0x00, 0x00,
  0x80, 0x04, 0xb9, 0xbd, 0x60, 0x2e, 0x1a, 0xbe, 0x00, 0xb1, 0xf6, 0xbc,
  0xe8, 0x0d, 0x03, 0x3f, 0xa8, 0x45, 0xe7, 0xbe, 0xa8, 0x45, 0xe7, 0xbe,
  0xc0, 0xb0, 0xf6, 0xbd, 0x00, 0xb1, 0xf6, 0x3c, 0x00, 0xb1, 0xf6, 0xbc,
  0x00, 0xb1, 0xf6, 0xbc, 0x80, 0x04, 0xb9, 0x3d, 0x00, 0xb1, 0xf6, 0x3c,
  0xc0, 0xb0, 0xf6, 0x3d, 0x00, 0xb1, 0xf6, 0x3c, 0x00, 0xb1, 0xf6, 0x3c,
  0x80, 0x04, 0xb9, 0x3d, 0xc0, 0xb0, 0xf6, 0xbd, 0xa0, 0xda, 0x57, 0x3e,
  0x00, 0xb1, 0xf6, 0xbc, 0x00, 0xb1, 0x76, 0x3d, 0x00, 0x00, 0x00, 0x00,
  0xc0, 0xb0, 0xf6, 0x3d, 0x80, 0x04, 0xb9, 0xbd, 0x80, 0xb0, 0x76, 0xbd,
  0xc0, 0xb0, 0xf6, 0x3d, 0x00, 0x00, 0x00, 0x00, 0xc0, 0xb0, 0xf6, 0x3d,
  0x00, 0x00, 0x00, 0x00, 0x60, 0x2e, 0x1a, 0xbe, 0xa0, 0x04, 0x39, 0x3e,
  0x00, 0xb1, 0xf6, 0x3c, 0x00, 0xb1, 0x76, 0x3d, 0x00, 0x00, 0x00, 0x00,
  0x00, 0xb1, 0xf6, 0x3c, 0xa0, 0x04, 0x39, 0x3e, 0x00, 0xb1, 0xf6, 0x3c,
  0x00, 0xb1, 0x76, 0x3d, 0x00, 0xb1, 0xf6, 0xbc, 0x00, 0x00, 0x00, 0x00,
  0x00, 0xb1, 0xf6, 0x3c, 0x00, 0x00, 0x00, 0x00, 0x00, 0x00, 0x00, 0x00,
  0x00, 0xb1, 0xf6, 0xbc, 0x00, 0x00, 0x00, 0x00, 0x00, 0x00, 0x00, 0x00,
  0x00, 0x00, 0x00, 0x00, 0x00, 0x00, 0x00, 0x00, 0xa0, 0xda, 0x57, 0x3e,
  0xc0, 0xb0, 0x76, 0x3e, 0x00, 0xb1, 0xf6, 0xbc, 0xc0, 0xb0, 0xf6, 0xbd,
  0x00, 0x00, 0x00, 0x00, 0x00, 0x00, 0x00, 0x00, 0x80, 0x99, 0x29, 0xbf,
  0x00, 0xb1, 0xf6, 0x3c, 0x00, 0xb1, 0xf6, 0xbc, 0x00, 0xb1, 0xf6, 0xbc,
  0x60, 0xc3, 0x8a, 0xbe, 0x80, 0xb0, 0x76, 0xbd, 0x00, 0x00, 0x00, 0x00,
  0x80, 0x04, 0xb9, 0x3d, 0x80, 0x04, 0xb9, 0xbd, 0x00, 0xb1, 0xf6, 0xbc,
  0x80, 0x2e, 0x1a, 0x3e, 0x00, 0x00, 0x00, 0x00, 0xa0, 0x04, 0x39, 0x3e,
  0x00, 0x00, 0x00, 0x00, 0x04, 0x4f, 0x31, 0xbf, 0x98, 0x6f, 0xc8, 0xbe,
  0x00, 0x00, 0x00, 0x00, 0x00, 0xb1, 0xf6, 0xbc, 0xc0, 0xb0, 0xf6, 0x3d,
  0x80, 0xb0, 0x76, 0xbd, 0x00, 0x00, 0x00, 0x00, 0x00, 0xb1, 0x76, 0x3d,
  0x00, 0xb1, 0xf6, 0x3c, 0x00, 0x00, 0x00, 0x00, 0x80, 0xb0, 0x76, 0xbd,
  0x80, 0xb0, 0x76, 0xbd, 0x80, 0x04, 0xb9, 0x3d, 0x00, 0x00, 0x00, 0x00,
  0xa0, 0x04, 0x39, 0x3e, 0x00, 0xb1, 0x76, 0x3d, 0x00, 0xb1, 0x76, 0x3d,
  0x00, 0x00, 0x00, 0x00, 0x80, 0x2e, 0x1a, 0x3e, 0x00, 0x00, 0x00, 0x00,
  0x80, 0xb0, 0x76, 0xbd, 0x00, 0x00, 0x00, 0x00, 0x00, 0xb1, 0xf6, 0x3c,
  0x00, 0xb1, 0xf6, 0x3c, 0x00, 0xb1, 0x76, 0x3d, 0x00, 0x00, 0x00, 0x00,
  0x00, 0xb1, 0xf6, 0xbc, 0x80, 0x2e, 0x1a, 0x3e, 0x00, 0x00, 0x00, 0x00,
  0x80, 0x04, 0xb9, 0xbd, 0x00, 0xb1, 0xf6, 0x3c, 0xc0, 0xb0, 0xf6, 0x3d,
  0x80, 0xb0, 0x76, 0xbd, 0x80, 0x04, 0xb9, 0xbd, 0x80, 0x2e, 0x1a, 0x3e,
  0x00, 0xb1, 0x76, 0x3d, 0x00, 0x00, 0x00, 0x00, 0x00, 0x00, 0x00, 0x00,
  0x00, 0xb1, 0xf6, 0xbc, 0x00, 0x00, 0x00, 0x00, 0x00, 0xb1, 0xf6, 0x3c,
  0x80, 0xb0, 0x76, 0xbd, 0xa0, 0x04, 0x39, 0x3e, 0x00, 0x00, 0x00, 0x00,
  0x00, 0xb1, 0xf6, 0xbc, 0x00, 0x00, 0x00, 0x00, 0x00, 0x00, 0x00, 0x00,
  0x80, 0xb0, 0x76, 0xbd, 0x00, 0x00, 0x00, 0x00, 0x80, 0x99, 0xa9, 0x3e,
  0x00, 0x00, 0x00, 0x00, 0x00, 0xb1, 0x76, 0x3d, 0x00, 0xb1, 0xf6, 0xbc,
  0x00, 0xb1, 0xf6, 0x3c, 0x00, 0x00, 0x00, 0x00, 0x00, 0x00, 0x00, 0x00,
  0x00, 0xb1, 0xf6, 0xbc, 0x00, 0x00, 0x00, 0x00, 0x00, 0xb1, 0xf6, 0xbc,
  0x00, 0x00, 0x00, 0x00, 0x00, 0x00, 0x00, 0x00, 0x00, 0x00, 0x00, 0x00,
  0x00, 0xb1, 0xf6, 0x3c, 0x00, 0xb1, 0xf6, 0xbc, 0x00, 0x00, 0x00, 0x00,
  0x00, 0x00, 0x00, 0x00, 0x00, 0xb1, 0xf6, 0xbc, 0x00, 0xb1, 0x76, 0x3d,
  0x00, 0xb1, 0x76, 0x3d, 0x00, 0x00, 0x00, 0x00, 0xc0, 0xb0, 0xf6, 0xbd,
  0xc0, 0xb0, 0xf6, 0x3d, 0x80, 0x04, 0xb9, 0xbd, 0x80, 0x2e, 0x1a, 0x3e,
  0x80, 0x2e, 0x1a, 0x3e, 0x80, 0x04, 0xb9, 0x3d, 0x80, 0xb0, 0x76, 0xbd,
  0x00, 0x00, 0x00, 0x00, 0x00, 0x00, 0x00, 0x00, 0x00, 0x00, 0x00, 0x00,
  0x00, 0xb1, 0xf6, 0x3c, 0x00, 0x00, 0x00, 0x00, 0xc0, 0xb0, 0xf6, 0x3d,
  0x00, 0xb1, 0x76, 0x3d, 0x80, 0xb0, 0x76, 0xbd, 0x80, 0xb0, 0x76, 0xbd,
  0x00, 0x00, 0x00, 0x00, 0x00, 0xb1, 0xf6, 0xbc, 0x00, 0xb1, 0x76, 0x3d,
  0x00, 0x00, 0x00, 0x00, 0x00, 0xb1, 0xf6, 0xbc, 0xc0, 0xb0, 0xf6, 0x3d,
  0x00, 0xb1, 0xf6, 0xbc, 0x00, 0xb1, 0xf6, 0x3c, 0x00, 0xb1, 0xf6, 0x3c,
  0xc0, 0xb0, 0xf6, 0x3d, 0xc0, 0xb0, 0x76, 0x3e, 0x00, 0xb1, 0x76, 0x3d,
  0x80, 0x2e, 0x1a, 0x3e, 0x00, 0x00, 0x00, 0x00, 0x00, 0x00, 0x00, 0x00,
  0x80, 0x04, 0xb9, 0xbd, 0x00, 0x00, 0x00, 0x00, 0x00, 0x00, 0x00, 0x00,
  0x80, 0x04, 0xb9, 0x3d, 0x00, 0x00, 0x00, 0x00, 0x00, 0xb1, 0xf6, 0x3c,
  0x00, 0x00, 0x00, 0x00, 0x80, 0xb0, 0x76, 0xbd, 0x90, 0x04, 0xb9, 0x3e,
  0x00, 0xb1, 0xf6, 0xbc, 0x00, 0xb1, 0xf6, 0x3c, 0x00, 0xb1, 0xf6, 0x3c,
  0x5c, 0x4a, 0xcc, 0x3f, 0x60, 0xc3, 0x8a, 0xbe, 0x80, 0xb0, 0x76, 0xbd,
  0x00, 0x00, 0x00, 0x00, 0x00, 0xb1, 0xf6, 0xbc, 0x80, 0xb0, 0x76, 0xbd,
  0x80, 0x04, 0xb9, 0x3d, 0xc0, 0xb0, 0xf6, 0xbd, 0x00, 0xb1, 0xf6, 0x3c,
  0x80, 0x04, 0xb9, 0xbd, 0x00, 0x00, 0x00, 0x00, 0x00, 0xb1, 0xf6, 0xbc,
  0x00, 0xb1, 0xf6, 0xbc, 0x80, 0x04, 0xb9, 0xbd, 0x00, 0xb1, 0xf6, 0xbc,
  0x00, 0xb1, 0xf6, 0xbc, 0x00, 0xb1, 0xf6, 0xbc, 0x80, 0x04, 0xb9, 0xbd,
  0x00, 0x00, 0x00, 0x00, 0x00, 0xb1, 0xf6, 0x3c, 0x80, 0x04, 0xb9, 0xbd,
  0x00, 0x00, 0x00, 0x00, 0x00, 0x00, 0x00, 0x00, 0x80, 0x04, 0xb9, 0x3d,
  0x00, 0xb1, 0xf6, 0x3c, 0x00, 0xb1, 0xf6, 0xbc, 0x00, 0x00, 0x00, 0x00,
  0x00, 0x00, 0x00, 0x00, 0x00, 0x00, 0x00, 0x00, 0x00, 0xb1, 0xf6, 0x3c,
  0x00, 0xb1, 0xf6, 0x3c, 0x00, 0xb1, 0xf6, 0xbc, 0x00, 0x00, 0x00, 0x00,
  0x00, 0x00, 0x00, 0x00, 0x00, 0xb1, 0xf6, 0xbc, 0x80, 0xb0, 0x76, 0xbd,
  0x00, 0xb1, 0xf6, 0x3c, 0x00, 0xb1, 0xf6, 0xbc, 0x00, 0xb1, 0x76, 0x3d,
  0xc0, 0xb0, 0xf6, 0x3d, 0x00, 0xb1, 0xf6, 0xbc, 0x00, 0xb1, 0xf6, 0x3c,
  0x00, 0xb1, 0x76, 0x3d, 0x00, 0x00, 0x00, 0x00, 0x00, 0x00, 0x00, 0x00,
  0x00, 0xb1, 0x76, 0x3d, 0x00, 0xb1, 0x76, 0x3d, 0x00, 0xb1, 0x76, 0x3d,
  0xc0, 0xb0, 0xf6, 0x3d, 0x00, 0xb1, 0xf6, 0x3c, 0x00, 0xb1, 0x76, 0x3d,
  0x00, 0x00, 0x00, 0x00, 0xa0, 0xda, 0xd7, 0xbe, 0x00, 0x00, 0x00, 0x00,
  0x00, 0x00, 0x00, 0x00, 0x00, 0x00, 0x00, 0x00, 0x00, 0x00, 0x00, 0x00,
  0x00, 0x00, 0x00, 0x00, 0x00, 0x00, 0x00, 0x00, 0x80, 0x04, 0xb9, 0xbd,
  0x80, 0x99, 0x29, 0x3f, 0x00, 0x00, 0x00, 0x00, 0x80, 0x04, 0xb9, 0x3d,
  0x00, 0x00, 0x00, 0x00, 0x90, 0x04, 0xb9, 0x3e, 0x04, 0x4f, 0x31, 0xbf,
  0x00, 0xb1, 0xf6, 0xbc, 0x00, 0x00, 0x00, 0x00, 0x00, 0x00, 0x00, 0x00,
  0xc0, 0xb0, 0xf6, 0x3d, 0x00, 0x00, 0x00, 0x00, 0x00, 0xb1, 0xf6, 0xbc,
  0x00, 0xb1, 0xf6, 0x3c, 0x00, 0xb1, 0xf6, 0xbc, 0x00, 0x00, 0x00, 0x00,
  0x00, 0xb1, 0xf6, 0xbc, 0xa0, 0xda, 0xd7, 0x3e, 0x00, 0xb1, 0xf6, 0x3c,
  0x00, 0x00, 0x00, 0x00, 0x00, 0xb1, 0xf6, 0xbc, 0xc0, 0xb0, 0xf6, 0xbd,
  0x00, 0x00, 0x00, 0x00, 0x00, 0xb1, 0xf6, 0xbc, 0x00, 0x00, 0x00, 0x00,
  0xc0, 0xb0, 0xf6, 0x3d, 0xc0, 0xb0, 0xf6, 0x3d, 0x00, 0xb1, 0xf6, 0x3c,
  0x80, 0xb0, 0x76, 0xbd, 0x00, 0xb1, 0xf6, 0x3c, 0x00, 0x00, 0x00, 0x00,
  0xc0, 0xb0, 0xf6, 0xbd, 0x80, 0x04, 0xb9, 0x3d, 0xc0, 0xb0, 0xf6, 0x3d,
  0x80, 0x04, 0xb9, 0x3d, 0x80, 0x2e, 0x1a, 0x3e, 0x80, 0x04, 0xb9, 0xbd,
  0x80, 0x2e, 0x1a, 0x3e, 0x80, 0x04, 0xb9, 0x3d, 0x00, 0xb1, 0x76, 0x3d,
  0x80, 0x04, 0xb9, 0xbd, 0x00, 0x00, 0x00, 0x00, 0x00, 0xb1, 0xf6, 0x3c,
  0x00, 0xb1, 0xf6, 0x3c, 0xc0, 0xb0, 0xf6, 0x3d, 0x00, 0xb1, 0xf6, 0xbc,
  0xa0, 0xda, 0x57, 0xbe, 0x00, 0xb1, 0xf6, 0xbc, 0x80, 0xb0, 0x76, 0xbd,
  0x80, 0xb0, 0x76, 0xbd, 0x00, 0xb1, 0xf6, 0x3c, 0x00, 0xb1, 0xf6, 0x3c,
  0x60, 0x2e, 0x1a, 0xbe, 0xc0, 0xb0, 0xf6, 0x3d, 0x80, 0xb0, 0x76, 0xbd,
  0xc0, 0xb0, 0xf6, 0xbd, 0x00, 0xb1, 0xf6, 0xbc, 0x00, 0x00, 0x00, 0x00,
  0x80, 0xb0, 0x76, 0xbd, 0x60, 0x2e, 0x1a, 0xbe, 0x00, 0xb1, 0x76, 0x3d,
  0x00, 0xb1, 0xf6, 0xbc, 0xc0, 0xb0, 0xf6, 0xbd, 0x80, 0x04, 0xb9, 0xbd,
  0xf0, 0x78, 0x12, 0x3f, 0x00, 0x00, 0x00, 0x00, 0xa8, 0x45, 0xe7, 0xbe,
  0x00, 0xb1, 0xf6, 0xbc, 0x00, 0x00, 0x00, 0x00, 0x00, 0x00, 0x00, 0x00,
  0x00, 0x00, 0x00, 0x00, 0x90, 0x04, 0xb9, 0x3e, 0x00, 0x00, 0x00, 0x00,
  0x00, 0x00, 0x00, 0x00, 0x00, 0x00, 0x00, 0x00, 0x60, 0x2e, 0x1a, 0xbe,
  0x00, 0xb1, 0xf6, 0xbc, 0x00, 0xb1, 0xf6, 0x3c, 0x00, 0x00, 0x00, 0x00,
  0xf0, 0x78, 0x12, 0x3f, 0x00, 0x00, 0x00, 0x00, 0x00, 0x00, 0x00, 0x00,
  0x00, 0xb1, 0x76, 0x3d, 0x80, 0x2e, 0x1a, 0x3e, 0x00, 0x00, 0x00, 0x00,
  0x00, 0x00, 0x00, 0x00, 0xc0, 0xb0, 0xf6, 0x3d, 0x00, 0xb1, 0x76, 0x3d,
  0x80, 0xb0, 0x76, 0xbd, 0xa0, 0x04, 0x39, 0x3e, 0x00, 0x00, 0x00, 0x00,
  0xc0, 0xb0, 0xf6, 0x3d, 0xa0, 0x04, 0x39, 0x3e, 0x80, 0xb0, 0x76, 0xbd,
  0x00, 0x00, 0x00, 0x00, 0xc0, 0xb0, 0xf6, 0x3d, 0xa0, 0x04, 0x39, 0x3e,
  0x80, 0x04, 0xb9, 0xbd, 0xc0, 0xb0, 0xf6, 0x3d, 0x00, 0xb1, 0x76, 0x3d,
  0x00, 0x00, 0x00, 0x00, 0xb0, 0x45, 0xe7, 0x3e, 0xc0, 0xb0, 0xf6, 0x3d,
  0x60, 0x2e, 0x1a, 0xbe, 0x80, 0xb0, 0x76, 0xbd, 0xc0, 0xb0, 0x76, 0xbe,
  0x80, 0x04, 0x39, 0xbe, 0x00, 0xb1, 0xf6, 0x3c, 0x00, 0xb1, 0xf6, 0xbc,
  0x00, 0xb1, 0xf6, 0x3c, 0x80, 0x04, 0x39, 0xbe, 0x80, 0x2e, 0x1a, 0x3e,
  0x80, 0x04, 0xb9, 0x3d, 0x00, 0xb1, 0xf6, 0x3c, 0x00, 0xb1, 0xf6, 0x3c,
  0x80, 0x2e, 0x1a, 0x3e, 0x00, 0xb1, 0x76, 0x3d, 0x80, 0x04, 0xb9, 0x3d,
  0x80, 0x04, 0xb9, 0xbd, 0xc0, 0xb0, 0xf6, 0xbd, 0xc0, 0xb0, 0xf6, 0x3d,
  0x00, 0x00, 0x00, 0x00, 0x00, 0x00, 0x00, 0x00, 0x80, 0x99, 0xa9, 0x3e,
  0x00, 0xb1, 0xf6, 0xbc, 0x00, 0x00, 0x00, 0x00, 0x80, 0xb0, 0x76, 0xbd,
  0x80, 0xb0, 0x76, 0xbd, 0xba, 0xb0, 0x76, 0xc0, 0xf8, 0xe3, 0x21, 0x3f,
  0xc0, 0xb0, 0xf6, 0x3d, 0x80, 0x04, 0xb9, 0xbd, 0xb1, 0x53, 0x16, 0xc0,
  0x00, 0xb1, 0xf6, 0x3c, 0x00, 0xb1, 0x76, 0x3d, 0xa0, 0xda, 0xd7, 0x3e,
  0xa0, 0x04, 0x39, 0x3e, 0x00, 0x00, 0x00, 0x00, 0x00, 0x00, 0x00, 0x00,
  0x00, 0xb1, 0x76, 0x3d, 0x80, 0x99, 0xa9, 0xbe, 0x00, 0x00, 0x00, 0x00,
  0x70, 0xc3, 0x8a, 0x3e, 0x80, 0x2e, 0x1a, 0x3e, 0x00, 0xb1, 0x76, 0x3d,
  0x00, 0xb1, 0xf6, 0xbc, 0x80, 0x2e, 0x1a, 0x3e, 0xc0, 0xb0, 0x76, 0x3e,
  0x80, 0x04, 0xb9, 0xbd, 0x60, 0xc3, 0x8a, 0xbe, 0x00, 0xb1, 0xf6, 0x3c,
  0x00, 0xb1, 0xf6, 0x3c, 0x00, 0xb1, 0xf6, 0xbc, 0x80, 0xb0, 0x76, 0xbd,
  0x00, 0x00, 0x00, 0x00, 0x00, 0x00, 0x00, 0x00, 0x00, 0xb1, 0x76, 0x3d,
  0x80, 0x04, 0xb9, 0x3d, 0x80, 0xb0, 0x76, 0xbd, 0xc0, 0xb0, 0xf6, 0x3d,
  0x00, 0xb1, 0xf6, 0x3c, 0x80, 0x04, 0xb9, 0x3d, 0xc0, 0xb0, 0xf6, 0x3d,
  0x00, 0xb1, 0xf6, 0x3c, 0x80, 0xb0, 0x76, 0xbd, 0x00, 0x00, 0x00, 0x00,
  0x80, 0xb0, 0x76, 0xbd, 0x80, 0x04, 0xb9, 0xbd, 0x80, 0x04, 0xb9, 0xbd,
  0x60, 0x2e, 0x1a, 0xbe, 0x80, 0xb0, 0x76, 0xbd, 0x80, 0x04, 0xb9, 0x3d,
  0x00, 0xb1, 0x76, 0x3d, 0x80, 0xb0, 0x76, 0xbd, 0xc0, 0xb0, 0xf6, 0x3d,
  0x00, 0xb1, 0xf6, 0x3c, 0x00, 0xb1, 0xf6, 0xbc, 0xc0, 0xb0, 0xf6, 0x3d,
  0xa0, 0x04, 0x39, 0x3e, 0x80, 0xb0, 0x76, 0xbd, 0x00, 0xb1, 0xf6, 0x3c,
  0x00, 0xb1, 0x76, 0x3d, 0x00, 0xb1, 0x76, 0x3d, 0xa0, 0xda, 0x57, 0xbe,
  0x80, 0x2e, 0x1a, 0x3e, 0x00, 0xb1, 0xf6, 0x3c, 0x00, 0x00, 0x00, 0x00,
  0x00, 0x00, 0x00, 0x00, 0x00, 0xb1, 0xf6, 0xbc, 0x00, 0x00, 0x00, 0x00,
  0x00, 0x00, 0x00, 0x00, 0x00, 0x00, 0x00, 0x00, 0x08, 0x4f, 0x31, 0x3f,
  0x00, 0xb1, 0xf6, 0xbc, 0x00, 0xb1, 0xf6, 0xbc, 0x80, 0x04, 0xb9, 0x3d,
  0x00, 0xb1, 0x76, 0x3d, 0x00, 0x00, 0x00, 0x00, 0x80, 0x04, 0xb9, 0xbd,
  0x00, 0x00, 0x00, 0x00, 0xa0, 0xda, 0x57, 0x3e, 0x00, 0xb1, 0xf6, 0xbc,
  0x00, 0xb1, 0x76, 0x3d, 0x00, 0x00, 0x00, 0x00, 0x80, 0xb0, 0x76, 0xbd,
  0x00, 0xb1, 0x76, 0x3d, 0x80, 0xb0, 0x76, 0xbd, 0x00, 0xb1, 0x76, 0x3d,
  0x70, 0xc3, 0x8a, 0x3e, 0x00, 0xb1, 0xf6, 0xbc, 0x80, 0x04, 0xb9, 0x3d,
  0xa0, 0x04, 0x39, 0x3e, 0x80, 0x04, 0xb9, 0xbd, 0x42, 0x74, 0xad, 0xbf,
  0x80, 0xb0, 0x76, 0xbd, 0x00, 0x00, 0x00, 0x00, 0x80, 0xb0, 0x76, 0xbd,
  0x80, 0x04, 0xb9, 0x3d, 0x80, 0x2e, 0x1a, 0x3e, 0x80, 0x04, 0xb9, 0x3d,
  0x00, 0xb1, 0xf6, 0x3c, 0x80, 0x04, 0xb9, 0x3d, 0x80, 0x04, 0xb9, 0x3d,
  0x80, 0xb0, 0x76, 0xbd, 0x00, 0x00, 0x00, 0x00, 0x80, 0xb0, 0x76, 0xbd,
  0x80, 0xb0, 0x76, 0xbd, 0xa0, 0x04, 0x39, 0x3e, 0x00, 0xb1, 0xf6, 0xbc,
  0xc0, 0xb0, 0xf6, 0xbd, 0xc0, 0xb0, 0xf6, 0x3d, 0x00, 0xb1, 0x76, 0x3d,
  0x80, 0x04, 0xb9, 0xbd, 0xa0, 0x04, 0x39, 0x3e, 0x00, 0x00, 0x00, 0x00,
  0x00, 0xb1, 0x76, 0x3d, 0x80, 0x2e, 0x1a, 0x3e, 0xc0, 0xb0, 0xf6, 0x3d,
  0x00, 0xb1, 0xf6, 0x3c, 0x00, 0xb1, 0x76, 0x3d, 0xc0, 0xb0, 0xf6, 0x3d,
  0x00, 0xb1, 0xf6, 0xbc, 0xc0, 0xb0, 0xf6, 0x3d, 0x80, 0x04, 0xb9, 0x3d,
  0x80, 0x04, 0xb9, 0xbd, 0x80, 0x04, 0xb9, 0x3d, 0x00, 0xb1, 0xf6, 0x3c,
  0x80, 0x2e, 0x1a, 0x3e, 0x00, 0x00, 0x00, 0x00, 0x00, 0xb1, 0xf6, 0x3c,
  0x80, 0x2e, 0x1a, 0x3e, 0x80, 0x2e, 0x1a, 0x3e, 0x80, 0x04, 0x39, 0xbe,
  0xf0, 0x78, 0x12, 0x3f, 0x94, 0x6f, 0x48, 0xbf, 0x40, 0x66, 0x7e, 0x3f,
  0x80, 0x04, 0xb9, 0x3d, 0x00, 0x00, 0x00, 0x00, 0x80, 0x2e, 0x1a, 0x3e,
  0x00, 0x00, 0x00, 0x00, 0x00, 0xb1, 0xf6, 0x3c, 0x00, 0xb1, 0x76, 0x3d,
  0x00, 0x00, 0x00, 0x00, 0x50, 0xdf, 0xbc, 0x3f, 0x00, 0xb1, 0xf6, 0xbc,
  0x00, 0x00, 0x00, 0x00, 0x00, 0x00, 0x00, 0x00, 0x00, 0xb1, 0xf6, 0xbc,
  0x00, 0x00, 0x00, 0x00, 0x00, 0x00, 0x00, 0x00, 0x00, 0x00, 0x00, 0x00,
  0x00, 0xb1, 0xf6, 0x3c, 0x00, 0xb1, 0xf6, 0xbc, 0x00, 0x00, 0x00, 0x00,
  0x80, 0xb0, 0x76, 0xbd, 0x00, 0x00, 0x00, 0x00, 0x00, 0xb1, 0xf6, 0xbc,
  0x00, 0xb1, 0xf6, 0x3c, 0x04, 0x4f, 0x31, 0xbf, 0x00, 0xb1, 0x76, 0x3d,
  0x80, 0xb0, 0x76, 0xbd, 0x00, 0x00, 0x00, 0x00, 0x98, 0x6f, 0xc8, 0xbe,
  0x80, 0x04, 0xb9, 0x3d, 0xc0, 0xb0, 0xf6, 0x3d, 0x00, 0xb1, 0xf6, 0x3c,
  0xa0, 0xda, 0x57, 0x3e, 0xc0, 0xb0, 0x76, 0x3e, 0xa0, 0x04, 0x39, 0x3e,
  0x80, 0x04, 0xb9, 0x3d, 0x80, 0x2e, 0x1a, 0x3e, 0x00, 0x00, 0x00, 0x00,
  0xc0, 0xb0, 0x76, 0x3e, 0xa0, 0xda, 0xd7, 0xbe, 0x00, 0xb1, 0x76, 0x3d,
  0xa0, 0x04, 0x39, 0x3e, 0x00, 0xb1, 0x76, 0x3d, 0x00, 0xb1, 0x76, 0x3d,
  0xc0, 0xb0, 0xf6, 0xbd, 0xa0, 0x04, 0x39, 0x3e, 0xc0, 0xb0, 0xf6, 0x3d,
  0x00, 0xb1, 0x76, 0x3d, 0x80, 0x04, 0xb9, 0x3d, 0xc0, 0xb0, 0xf6, 0x3d,
  0x80, 0x2e, 0x1a, 0x3e, 0x00, 0x00, 0x00, 0x00, 0xc0, 0xb0, 0x76, 0x3e,
  0x00, 0xb1, 0xf6, 0x3c, 0x80, 0x2e, 0x1a, 0x3e, 0x00, 0xb1, 0xf6, 0x3c,
  0x00, 0x00, 0x00, 0x00, 0xa0, 0x04, 0x39, 0x3e, 0x80, 0x99, 0xa9, 0x3e,
  0x00, 0xb1, 0xf6, 0xbc, 0x80, 0x04, 0xb9, 0x3d, 0x70, 0x2e, 0x9a, 0xbe,
  0x00, 0xb1, 0xf6, 0x3c, 0x20, 0x25, 0x50, 0x3f, 0x00, 0xb1, 0x76, 0x3d,
  0x90, 0x04, 0xb9, 0x3e, 0x80, 0x2e, 0x1a, 0x3e, 0xb4, 0x53, 0x96, 0x3f,
  0x00, 0xb1, 0x76, 0x3d, 0x10, 0xba, 0x40, 0x3f, 0x60, 0xc3, 0x8a, 0xbe,
  0x80, 0x04, 0xb9, 0x3d, 0x80, 0x2e, 0x1a, 0x3e, 0x74, 0x2e, 0x9a, 0x3f,
  0xa0, 0xda, 0x57, 0x3e, 0x10, 0xba, 0x40, 0x3f, 0xa0, 0x04, 0x39, 0x3e,
  0xa0, 0xda, 0x57, 0xbf, 0xa8, 0xda, 0x57, 0x3f, 0x8c, 0x04, 0x39, 0xbf,
  0xb0, 0x45, 0xe7, 0x3e, 0x00, 0xb1, 0xf6, 0x3c, 0x80, 0xb0, 0x76, 0xbd,
  0x00, 0xb1, 0xf6, 0xbc, 0x88, 0x04, 0xb9, 0xbe, 0x00, 0x00, 0x00, 0x00,
  0x00, 0xb1, 0x76, 0x3d, 0xa0, 0xda, 0x57, 0xbe, 0xa0, 0xda, 0xd7, 0xbe,
  0xb8, 0xb0, 0x76, 0xbf, 0x00, 0xb1, 0xf6, 0x3c, 0x60, 0x2e, 0x1a, 0xbe,
  0x60, 0x2e, 0x1a, 0xbe, 0xa0, 0xda, 0x57, 0x3e, 0x00, 0xb1, 0xf6, 0x3c,
  0xa0, 0x04, 0x39, 0x3e, 0x00, 0xb1, 0xf6, 0x3c, 0x00, 0xb1, 0xf6, 0x3c,
  0x00, 0xb1, 0x76, 0x3d, 0x80, 0x04, 0xb9, 0x3d, 0x80, 0x04, 0xb9, 0x3d,
  0x00, 0x00, 0x00, 0x00, 0x00, 0xb1, 0x76, 0x3d, 0x00, 0xb1, 0xf6, 0xbc,
  0xa0, 0x04, 0x39, 0x3e, 0xc0, 0xb0, 0xf6, 0xbd, 0x80, 0x04, 0xb9, 0xbd,
  0xa0, 0x04, 0x39, 0x3e, 0x80, 0x04, 0xb9, 0x3d, 0x00, 0xb1, 0xf6, 0x3c,
  0x80, 0x2e, 0x1a, 0x3e, 0x80, 0x04, 0xb9, 0xbd, 0xa0, 0xda, 0x57, 0x3e,
  0x00, 0xb1, 0x76, 0x3d, 0xa0, 0x04, 0x39, 0x3e, 0x00, 0x00, 0x00, 0x00,
  0x00, 0x00, 0x00, 0x00, 0xc0, 0xb0, 0xf6, 0x3d, 0xc0, 0xb0, 0xf6, 0x3d,
  0x00, 0xb1, 0x76, 0x3d, 0x60, 0x2e, 0x1a, 0xbe, 0x80, 0x04, 0xb9, 0x3d,
  0x00, 0xb1, 0x76, 0x3d, 0x60, 0x2e, 0x1a, 0xbe, 0x00, 0xb1, 0xf6, 0xbc,
  0x00, 0xb1, 0xf6, 0x3c, 0x00, 0xb1, 0x76, 0x3d, 0x00, 0xb1, 0xf6, 0xbc,
  0x00, 0xb1, 0xf6, 0xbc, 0x00, 0x00, 0x00, 0x00, 0xa0, 0x6f, 0xc8, 0x3e,
  0xec, 0x78, 0x12, 0xbf, 0x00, 0xb1, 0xf6, 0xbc, 0x68, 0xc3, 0x0a, 0xbf,
  0x00, 0xb1, 0xf6, 0xbc, 0x00, 0x00, 0x00, 0x00, 0x2a, 0x9e, 0x8e, 0xbf,
  0x00, 0xb1, 0xf6, 0x3c, 0xa0, 0x04, 0x39, 0x3e, 0x80, 0x04, 0xb9, 0xbd,
  0xe0, 0x0d, 0x03, 0xbf, 0x80, 0xb0, 0x76, 0xbd, 0x00, 0xb1, 0x76, 0x3d,
  0x00, 0x00, 0x00, 0x00, 0xa0, 0xda, 0x57, 0xbe, 0x00, 0x00, 0x00, 0x00,
  0x70, 0xc3, 0x8a, 0x3e, 0x10, 0xba, 0x40, 0x3f, 0xc0, 0xb0, 0x76, 0x3e,
  0x00, 0x00, 0x00, 0x00, 0x70, 0x2e, 0x9a, 0xbe, 0x80, 0x99, 0x29, 0xbf,
